{"<unk>": 0, "<s>": 1, "</s>": 2, "\u2581": 3, "\u0902": 4, "\u0947": 5, ",": 6, "\u0964": 7, "\u093e": 8, "\u0940": 9, "\u2581\u0915\u0947": 10, "\u2581\u0939\u0948": 11, "\u0928": 12, "\u2581\u0964": 13, "\u2581\"": 14, "\u0903": 15, "\u0915": 16, "\u092e": 17, "\u0924": 18, ":": 19, "\u2581\u092e\u0947\u0902": 20, "-": 21, "\u2581\u0914\u0930": 22, "\u0930": 23, "\u092e\u094d": 24, "\u2581\u0915\u0940": 25, "\u2581\u0905": 26, "\u094b": 27, "\u0938": 28, "\u094d": 29, "\u2581\u0938\u0947": 30, "\u2581\u0915\u094b": 31, "\u0932": 32, "\u2581\u0915\u093e": 33, "\u094b\u0902": 34, ")": 35, "\u2581\u0928": 36, "\u093f": 37, "\u0938\u094d\u092f": 38, "\u0935": 39, "\u2581(": 40, "\u2581\u0938": 41, "\u0941": 42, "\u0926": 43, "\u092f": 44, ".": 45, "\u2581\"\"\"": 46, "\u2581\u091a": 47, "\u092a": 48, "\u0924\u093e": 49, "\u091f": 50, "\u2581\u0915\u093f": 51, "\u2581\u092a\u0930": 52, "\u0924\u093f": 53, "\u2581\u0906": 54, "\u2581\u090f\u0915": 55, "\u093f\u0924": 56, "\u091c": 57, "\u094d\u092f": 58, "\u0930\u094d": 59, "\u0928\u093e": 60, "\u0939": 61, "\u092c": 62, "\u0928\u0947": 63, "\u2581\u0939\u0948\u0902": 64, "\u2581\u0964\"\"\"": 65, "\u0938\u094d": 66, "\u0936": 67, "\u2581\u0924\u0925\u093e": 68, "\u2581\u0907\u0924\u093f": 69, "\u2581\u092a\u094d\u0930": 70, "\u091a": 71, "\u2581\u0932\u093f\u090f": 72, "e": 73, "\u2581\u0924\u094b": 74, "s": 75, "\u2581\u0915\u0930": 76, "\u0928\u094d": 77, "\u0942": 78, "\u0923": 79, "\u2581\u0939\u094b": 80, "\u0924\u0947": 81, "\u2581\u0935\u093f": 82, "\u2581\u0928\u0939\u0940\u0902": 83, "\u092f\u093e": 84, "\u094c": 85, "\u2581\u092d\u0940": 86, "\u2581\u0915": 87, "\u0917": 88, "\u0948": 89, "\u2581\u091c\u094b": 90, "\u0927": 91, "\u2581\u092f\u093e": 92, "\u0924\u094d": 93, "\u2581\u092f\u0939": 94, "\u2581\u0939\u0940": 95, "\u093e\u0928\u094d": 96, "\u2581\u0915\u093f\u092f\u093e": 97, "\u2581\"\"\"\"\"\"\"": 98, "\u0915\u094d\u0937": 99, "\u093e\u0928\u093f": 100, "\u2581\u0935": 101, "\u2581\u0924": 102, "\u092a\u093f": 103, "\u2581\u0928\u0947": 104, "\"\"\"\"\"\"\"": 105, "o": 106, "\u0926\u094d": 107, "\u2581\u0935\u0939": 108, "\u0905": 109, "\u0937": 110, "\u093e\u092f": 111, "\u2581\u0907\u0938": 112, "\u0915\u0930": 113, "\u093f\u0915": 114, "\u2581\u092a": 115, "\u2581\u092a\u094d\u0930\u0924\u093f": 116, "\u0938\u094d\u0924": 117, "\u2581\u0915\u0930\u0928\u0947": 118, "\u0928\u093f": 119, "\"": 120, "\u2581\u0928\u093f": 121, "\u0924\u0940": 122, "\u0947\u0928": 123, "\u090f": 124, "\u0932\u093e": 125, "\u092e\u093e": 126, "\u0925": 127, "\u0930\u093e": 128, "\u2581\u0936": 129, "\u2581\u0909\u0938": 130, "\u2581\u0938\u094d\u0935": 131, "\u0940\u092f": 132, "\u092b": 133, "i": 134, "\u2581\u091c\u093e": 135, "\u0935\u093f": 136, "\u092d": 137, "l": 138, "\u2581\u0924\u0941\u092e": 139, "\u2581\u0935\u092f\u0902": 140, "?": 141, "\u0916": 142, "\u2581\u0907": 143, "\u2581\u0917": 144, "\u2581\u0938\u093e": 145, "\u0924\u094d\u0930": 146, "\u0932\u094d": 147, "\u0915\u093e": 148, "\u2581\u092e": 149, "\u0921": 150, "\u2581\u092c": 151, "\u2581\u0938\u0902": 152, "\u0935\u093e": 153, "\u2581\u092d": 154, "\u0924\u0903": 155, "\u093e\u0903": 156, "\u0938\u093e": 157, "\u00e0": 158, "d": 159, "t": 160, "\u091f\u094d": 161, "\u0936\u094d\u091a": 162, "\u2581\u0926": 163, "\u0924\u0941": 164, "\u2581\u0905\u092a\u093f": 165, "\u2581\u092f": 166, "\u093e\u0902": 167, "\u2581\u091c": 168, "\u2581\u0935\u0947": 169, "\u0921\u093c": 170, "\u0930\u0947": 171, "\u2581\u0909\u0938\u0915": 172, "\u2581\u0909": 173, "\u0943": 174, "\u092f\u094b": 175, "\u0907": 176, "\u2581\u0905\u092a\u0928\u0947": 177, "\u2581\u092e\u0927\u094d\u092f\u0947": 178, "\u2581\u0925\u093e": 179, "\u092a\u094d\u0930": 180, "\u0947\u0937\u0941": 181, "\u0915\u093e\u0930": 182, "\u093e\u0928": 183, "\u094d\u0930": 184, "\u2581\u092d\u0935\u0924\u093f": 185, "y": 186, ";": 187, "\u2581\u0932\u0947": 188, "a": 189, "\u0932\u0947": 190, "\u0930\u0940": 191, "\u094d\u092f\u093e": 192, "\u0915\u0947": 193, "p": 194, "\u2581\u0909\u092a": 195, "\u0930\u093f": 196, "\u2581\u092b": 197, "\u092e\u093f": 198, "\u0938\u0940": 199, "\u091c\u093c": 200, "\u2581\u0917\u092f\u093e": 201, "\u2581\u090f": 202, "\u0937\u094d\u091f": 203, "\u2581\u0905\u0938\u094d\u0924\u093f": 204, "\u2581\u0907\u0924\u0940\u0926\u0902": 205, "\u00a4": 206, "\u0932\u0940": 207, "\u093e\u0928\u093e\u0902": 208, "\u0926\u093e": 209, "c": 210, "\u2581\u092a\u093e": 211, "\u092a\u0930": 212, "\u0930\u094b": 213, "\u0908": 214, "\u2581\u0907\u0924\u094d\u092f\u0938\u094d\u092f": 215, "\u0938\u0947": 216, "'": 217, "r": 218, "\u2581\u0938\u093e\u0925": 219, "\u091e\u094d\u091a": 220, "\u2581s": 221, "\u2581\u0935\u093e": 222, "\u2581\u092e\u093e": 223, "\u092a\u094d": 224, "\u2581\u0938\u0930\u094d\u0935": 225, "2": 226, "h": 227, "\u2581\u091c\u092c": 228, "\u0917\u093e": 229, "\u2581\u0939\u092e": 230, "\u0928\u0940": 231, "\u0932\u093f": 232, "\u2581\u092f\u0947": 233, "\u2581\u0939": 234, "\u0930\u0923": 235, "\u0913\u0902": 236, "\u0924\u094b": 237, "\u2581\u0906\u092a": 238, "\u093f\u0915\u093e": 239, "\u2581\u0915\u093f\u0928\u094d\u0924\u0941": 240, "\u2581\u0905\u0928\u094d\u092f": 241, "\u0924\u094d\u092f": 242, "\u2581\u0932\u094b\u0917": 243, "1": 244, "\u093e\u0924\u094d": 245, "\u2581\u0915\u0941\u091b": 246, "\u0964\"": 247, "\u2581\u0924\u0924\u094d": 248, "\u093e\u0930": 249, "\u2581\u0938\u0939": 250, "\u2581\u092a\u0930\u093f": 251, "\u093f\u092f\u094b\u0902": 252, "\u2581\u0909\u0928": 253, "\u092f\u0947": 254, "\u2581\u0930\u0942\u092a": 255, "\u2581\u0915\u0930\u0924\u0947": 256, "er": 257, "\u2581\u0915\u094b\u0908": 258, "\u0938\u094d\u0925": 259, "\u0935\u093e\u0928\u094d": 260, "\u0949": 261, "\u2581\u0915\u093e\u0930\u094d\u092f": 262, "\u0938\u093f": 263, "n": 264, "\u091a\u094d\u091b": 265, "m": 266, "\u092e\u093e\u0928": 267, "\u2581\u0905\u0939\u0902": 268, "\u2581\u091c\u0928": 269, "\u0928\u094d\u0924\u093f": 270, "\u2581\u0924\u0938\u094d\u092f": 271, "\u0964\"\"\"": 272, "\u2581\u0915\u093f\u0938": 273, "\u0926\u0947\u0936": 274, "\u0935\u0947": 275, "\u092e\u0947\u0902": 276, "u": 277, "\u0928\u094d\u0924": 278, "\u2581|": 279, "\u2581\u0926\u094d\u0935\u093e\u0930\u093e": 280, "\u0915\u094b": 281, "\u2581\u0924\u0915": 282, "\u2581\u092a\u094d\u0930\u093e\u092a\u094d\u0924": 283, "\u2581\u0932": 284, "\u093e\u0908": 285, "\u093e\u0932": 286, "\u2581\u0938\u0941": 287, "\u093e\u092e": 288, "\u2581\u0905\u0927\u093f\u0915": 289, "\u2581\u091c\u093e\u0924\u093e": 290, "\u092e\u092a\u093f": 291, "\u0915\u0940": 292, "\u2581\u092f\u0926\u093f": 293, "\u2581\u0909\u0928\u0915\u0947": 294, "\u2581\u0928\u0941\u0926\u0928\u094d\u0924\u0941": 295, "\u2581S": 296, "\u2581\u0924\u093e": 297, "\u2581\u0925\u0947": 298, "\u2581\u0926\u093f\u092f\u093e": 299, "\u2581\u0928\u093e\u092e": 300, "\u2581\u092e\u0941": 301, "\u2581\u0905\u0935": 302, "\u093e\u0923\u093f": 303, "\u2581\u0915\u094d\u092f\u093e": 304, "\u2581\u0915\u0930\u0947\u0902": 305, "\u093f\u092f\u093e": 306, "\u2581\u0932\u094b\u0917\u094b\u0902": 307, "\u0924\u0930": 308, "\u2581\u092f\u0924\u094d": 309, "\u0915\u093f": 310, "\u091c\u0928": 311, "\u2581\u092d\u093e\u0930\u0924": 312, "\u2581\u092c\u093e\u0932": 313, "\u2581\u0915\u0930\u0928\u093e": 314, "\u0936\u093e": 315, "\u2581\"\"": 316, "\u0918": 317, "0": 318, "\u092b\u093c": 319, "g": 320, "\u2581\u0915\u0925": 321, "\u2581\u0915\u0939\u093e": 322, "/": 323, "\u2581'": 324, "\u25811": 325, "\u2581\u0938\u092e\u092f": 326, "\u0928\u094d\u0924\u0941": 327, "\u092a\u093e": 328, "\u0906": 329, "\u0935\u094d\u092f": 330, "\u0915\u094d\u0924": 331, "\u0920": 332, "\u2581\u0915\u0930\u094b\u0924\u093f": 333, "\u0917\u094d\u0930": 334, "\u2581\u092e\u092e": 335, "\u0924\u094d\u0935": 336, "\u2581\u0926\u0947": 337, "\u2581\u0924\u0947": 338, "\u2581\u0916\u093c\u0941\u0926\u093e": 339, "\u2581\u0939\u0941\u090f": 340, "\u0927\u093e": 341, "\u2581\u091c\u093f\u0938": 342, "%": 343, "\u092f\u0941": 344, "\u2581\u0930\u094d": 345, "\u2019": 346, "\u2581\u092b\u093f\u0930": 347, "b": 348, "\u2581\u0938\u0930\u094d\u0935\u094d\u0935": 349, "\u2581\u092e\u093f\u0932": 350, "\u0921\u094d": 351, "\u2581\u0926\u0947\u0936": 352, "\u2581\u0905\u092a\u0928\u0940": 353, "\u2581\u0905\u0924\u094d\u0930": 354, "\u0928\u094d\u0926": 355, "\u0932\u094d\u0932\u093e\u0939": 356, "\u091f\u0947": 357, "\u092c\u093e": 358, "re": 359, "\u2581\u092e\u0948\u0902": 360, "\u2581\u0924\u0926\u093e": 361, "\u2581\u0928\u093e": 362, "\u0938\u0941": 363, "\u0935\u093e\u0930": 364, "\u0928\u094d\u092f": 365, "\u0915\u0930\u0923": 366, "\u091f\u0940": 367, "\u092f\u0902": 368, "\u2581\u0930\u0916": 369, "\u093e\u0935": 370, "\u2581\u0915\u0941": 371, "\u0937\u094d\u0920": 372, "\u0919\u094d\u0915": 373, "\u2581\u0930\u0939": 374, "\u0902\u0917": 375, "k": 376, "\u2581\u0905\u0928\u0941": 377, "\u0947\u0923": 378, "\u2581\u092f\u0942\u092f\u0902": 379, "\u0936\u094d\u0930": 380, "\u2581\u0925\u0940": 381, "\u094d\u092f\u0924\u0947": 382, "\u2581\u0930": 383, "\u2581\u0916": 384, "at": 385, "\u2581\u090f\u0935": 386, "\u2581\u0930\u0939\u0947": 387, "\u2581\u0938\u092c": 388, "\u2581\u0926\u093f\u0928": 389, "\u0927\u093f": 390, "\u2581\u0926\u0947\u0916": 391, "\u2581C": 392, "\u094d\u092e": 393, "\u2581\u092c\u093e\u0926": 394, "\u2581\u0926\u094b": 395, "\u201d": 396, "st": 397, "\u0926\u0940": 398, "6": 399, "\u2581\u092e\u0939\u093e": 400, "\u2581\u0909\u0928\u094d\u0939\u0947\u0902": 401, "\u2581\u0938\u092e": 402, "\u2581\u091b": 403, "\u2581\u2018": 404, "\u2581\u0915\u0930\u0924\u093e": 405, "\u2581\u0935\u0930\u094d\u0924\u0924\u0947": 406, "\u091c\u093e": 407, "\u094d\u0935\u093e": 408, "\u2581\u0939\u092e\u093e\u0930": 409, "\u2581\u0924\u0941\u092e\u094d\u0939\u093e\u0930": 410, "\u2581\u0938\u093f": 411, "\u2581\u0939\u094b\u0924\u093e": 412, "\u092d\u0935": 413, "ar": 414, "\u091a\u0928": 415, "\u2581\u0938\u094d\u0925\u093e\u0928": 416, "\u2581\u092c\u0939\u0941\u0924": 417, "\u0902\u0921": 418, "\u2581\u092e\u0947": 419, "\u0917\u0947": 420, "\u092f\u0941\u0915\u094d\u0924": 421, "\u091a\u093e\u0930": 422, "\u2581\u0932\u093f\u0916": 423, "\u2581\u090f\u0924": 424, "\u2581\u0938\u0928\u094d\u0924\u093f": 425, "\u2581\u092f\u0925\u093e": 426, "\u092f\u0924": 427, "\u2581\u0938\u0915\u0924\u093e": 428, "\u2581\u0924\u0930\u094d\u0939\u093f": 429, "\u2581\u0907\u0928": 430, "\u0930\u094d\u0925": 431, "es": 432, "8": 433, "\u2581\u0915\u094d\u0937\u0947\u0924\u094d\u0930": 434, "\u2581\u092c\u093e": 435, "\u2581\u090f\u0935\u0902": 436, "4": 437, "\u0930\u094d\u0935": 438, "\u2581\u0924\u094d\u0935": 439, "\u2581\u0910\u0938": 440, "\u2581\u092a\u093e\u0938": 441, "\u093e\u092e\u093f": 442, "\u092f\u0924\u093f": 443, "\u2581\u0915\u092e": 444, "\u0915\u093c": 445, "\u2581\u0930\u0939\u093e": 446, "\u0924\u094d\u0935\u093e": 447, "\u0937\u094d": 448, "\u2581\u0907\u0926\u0902": 449, "\u0916\u093c": 450, "\u2581\u0909\u092a\u0930\u093f": 451, "\u092e\u0938\u094d\u0924\u093f": 452, "\u2581\u0932\u093e": 453, "en": 454, "\u0938\u0930": 455, "\u2581\u092e\u093e\u0928": 456, "\u2581\u092a\u0942\u0930\u094d\u0935": 457, "\u0923\u094d\u0921": 458, "ing": 459, "\u2581\u092a\u094d\u0930\u0915\u093e\u0930": 460, "\u2581\u092c\u0928\u093e": 461, "\u094b\u093d": 462, "on": 463, "\u0935\u093e\u0932": 464, "\u2581\u092a\u094d\u0930\u0924\u094d\u092f": 465, "3": 466, "\u2581\u0924\u0930\u0939": 467, "\u0915\u094d\u0938": 468, "\u0928\u094b": 469, "\u2581\u0915\u0939": 470, "\u2581\u0909\u0928\u0915": 471, "\u2581\u0905\u0927\u0941\u0928\u093e": 472, "\u0917\u094d": 473, "5": 474, "\u0909": 475, "\u0939\u0902": 476, "\u2581a": 477, "\u092d\u094d\u092f": 478, "\u2581\u0913\u0930": 479, "\u2581\u092a\u094d\u0930\u093e": 480, "\u2581\u092a\u093e\u0920": 481, "\u2581\u0905\u0925\u0935\u093e": 482, "\u2581\u0930\u093e\u091c\u094d\u092f": 483, "7": 484, "\u0919\u094d\u0917": 485, "\u2581\u092c\u093e\u0924": 486, "\u093f\u0928": 487, "\u2581\u0939\u0947": 488, "\u0935\u093e\u0926": 489, "\u2581\u092a\u0939\u0932\u0947": 490, "\u2581\u0939\u093f": 491, "\u2581\u0939\u094b\u0928\u0947": 492, "\u091f\u093e": 493, "\u0917\u0940": 494, "\u093e\u0901": 495, "\u0938\u094d\u091f": 496, "\u2581-": 497, "\u0915\u0902": 498, "\u0935\u093f\u0927": 499, "\u2581\u0938\u0940": 500, "\u2581\u0905\u0938\u094d\u092e\u093e\u0915\u0902": 501, "w": 502, "\u091c\u094d\u091e": 503, "\u0926\u093f": 504, "!": 505, "\u2581\u0909\u092a\u092f\u094b\u0917": 506, "\u092d\u093e": 507, "\u2581\u201c": 508, "\u092f\u094b\u0917": 509, "\u25812": 510, "al": 511, "\u091c\u093f": 512, "\u2581\u0926\u0940": 513, "\u2581\u091a\u093e\u0939\u093f\u090f": 514, "\u2581\u0935\u093f\u0937\u092f": 515, "\u0910": 516, "\u092d\u093e\u0937": 517, "\u2581\u0939\u092e\u0928\u0947": 518, "x": 519, "\u2581\u0927": 520, "\u2581\u0915\u0930\u094d\u0924\u0941\u0902": 521, "\u2581\u091c\u0940\u0935\u0928": 522, "or": 523, "\u2581\u0939\u0930": 524, "\u2581\u0908\u0936\u094d\u0935\u0930": 525, "\u2581\u0907\u0924\u094d\u092f": 526, "\u093e\u092f\u093e": 527, "\u0939\u093e\u0930": 528, "S": 529, "\u2581\u0915\u0925\u093e": 530, "\u091a\u094d\u091a": 531, "\u0935\u093e\u0938": 532, "\u2581\u0918": 533, "\u0917\u0924": 534, "in": 535, "\u2581\u0915\u0941\u0930\u094d\u0935\u0928\u094d\u0924\u0941": 536, "\u2581\u0935\u0930\u094d\u0937": 537, "\u093e\u0930\u094d\u0925": 538, "\u092d\u093f": 539, "\u092e\u0924": 540, "\u0935\u0940": 541, "\u2581\u0939\u0941\u0906": 542, "\u0926\u094d\u092f": 543, "\u2581\u092f\u0941\u0937\u094d\u092e\u093e\u0915": 544, "\u091a\u093f": 545, "\u0948\u0935": 546, "\u092f\u093f\u0924\u0941\u0902": 547, "\u2581\u0938\u0915\u0924\u0947": 548, "\u093f\u0924\u093e": 549, "an": 550, "\u2581\u092d\u093e\u0917": 551, "\u2581\u092c\u0940": 552, "\u2581A": 553, "it": 554, "\u2581\u0917\u090f": 555, "\u2581\u0924\u0902": 556, "\u0936\u0928": 557, "\u2581\u0915\u0943\u0924\u094d\u0935\u093e": 558, "\u093f\u0932": 559, "\u093e\u0924": 560, "\u2581\u0907\u0938\u0915": 561, "\u2581\u0926\u0941": 562, "\u0927\u093e\u0930": 563, "\"\"\"": 564, "\u2581\u0917\u0941": 565, "\u0938\u094d\u092e\u093f\u0928\u094d": 566, "\u2581\u0917\u0908": 567, "\u0915\u094d\u0930": 568, "\u0914\u0930": 569, "\u2581\u0916\u093e": 570, "\u093e\u0930\u094d\u0925\u0902": 571, "\u2581\u0932\u094b\u0915": 572, "\u2581\u091c\u093e\u0928": 573, "\u2581\u0928\u0942\u0924\u0928": 574, "\u2581\u0938\u0930\u0915\u093e\u0930": 575, "\u0926\u093e\u0928": 576, "\u2581\u0915\u0930\u094b": 577, "_": 578, "\u2581\u092a\u094d\u0930\u092f\u094b\u0917": 579, "\u2581\u0909\u0928\u094d\u0939\u094b\u0902\u0928\u0947": 580, "\u2581\u0939\u094b\u0917\u093e": 581, "\u0948\u0903": 582, "\u2581\u0938\u0924\u094d\u092f": 583, "\u2581\u092d\u093e\u0930\u0924\u0940\u092f": 584, "\u2581\u0936\u0930\u0940\u0930": 585, "\u2581\u0938\u094d\u092e": 586, "\u094b\u092a": 587, "\u092d\u093e\u0917": 588, "\u2581\u0926\u093e": 589, "\u0915\u0943\u0924": 590, "\u2581\u0938\u092d\u0940": 591, "f": 592, "\u2581\u0915\u093c": 593, "\u2581\u092c\u093f": 594, "\u2581\u0926\u094d\u0935": 595, "\u092d\u093e\u0935": 596, "\u0938\u092e": 597, "\u2581\u0928\u093f\u0930\u094d": 598, "\u0939\u093e": 599, "\u2581\u0924\u0947\u0928": 600, "\u0924\u0924\u0903": 601, "\u2581\u090f\u0924\u0924\u094d": 602, "R": 603, "\u0935\u0930\u094d\u0924": 604, "\u2581\u0921": 605, "\u2581p": 606, "\u2581\u092e\u0928": 607, "\u2581\u092d\u0935\u0924": 608, "\u2581\u092d\u0942": 609, "\u2581M": 610, "\u0927\u094d\u0935": 611, "\u0926\u094d\u0927": 612, "\u0938\u094d\u0935": 613, "\u2581\u0908": 614, "\u2581\u0906\u0917": 615, "\u2581\u092e\u094b": 616, "\u091c\u0940": 617, "\u093f\u0902\u0917": 618, "\u2581\u0915\u0947\u0935\u0932": 619, "\u2581\u091a\u093f\u0924\u094d\u0930": 620, "\u0928\u094d\u0928": 621, "\u2581\u0915\u093e\u092e": 622, "\u092a\u0928": 623, "\u092d\u0940": 624, "ed": 625, "D": 626, "\u2581\u092e\u0939": 627, "\u2581\u0935\u093f\u091a\u093e\u0930": 628, "\u2581\u092a\u0940": 629, "\u0924\u092e": 630, "\u2581\u0935\u093e\u0932\u0947": 631, "\u2581P": 632, "\u2581\u091c\u0932": 633, "\u092e\u0947\u0935": 634, "\u2581\u0935\u093f\u0936\u0947\u0937": 635, "\u092a\u093e\u0926": 636, "\u0942\u0930": 637, "\u0939\u0930": 638, "\u0924\u094d\u0935\u0902": 639, "\u2581\u0917\u0943\u0939": 640, "\u2581\u0938\u092e\u093e": 641, "\u0938\u094d\u092e": 642, "T": 643, "\u0941\u0903": 644, "\u2581\u0910\u0938\u0947": 645, "\u2581\u0939\u094b\u0924\u0947": 646, "\u092e\u0941": 647, "\u2581\u092a\u094d\u0930\u094b": 648, "\u0930\u0942\u092a": 649, "\u092f\u093e\u0902": 650, "\u0928\u093e\u0902": 651, "\u0932\u094b\u0915": 652, "v": 653, "\u2581\u091c\u093e\u0928\u093e": 654, "\u2581\u0939\u094b\u0924\u0940": 655, "\u2581\u0935\u093f\u0915\u093e\u0938": 656, "\u2581\u0915\u0943\u0924": 657, "\u2581\u0924\u0947\u0937\u093e\u0902": 658, "\u090f\u0902": 659, "\u0947\u092d\u094d\u092f\u0903": 660, "\u2581\u092a\u0930\u093f\u0935\u0930\u094d\u0924": 661, "\u0939\u093f": 662, "\u093e\u0923\u093e\u0902": 663, "\u0938\u094d\u0925\u093e\u0928": 664, "\u2581\u092c\u0939\u0941": 665, "\u2581\u092c\u0947": 666, "\u2581\u092d\u0935\u0928\u094d\u0924\u0903": 667, "\u2581\u0924\u0926\u094d": 668, "\u2581\u0905\u092a\u0930": 669, "\u0907\u0938": 670, "\u0939\u0947": 671, "\u2581\u0936\u093e": 672, "\u093e\u0926\u094d": 673, "\u2581\u092a\u0941": 674, "\u092f\u093e\u092e\u093f": 675, "\u0928\u093e\u092e": 676, "\u2581\u0906\u0930": 677, "\u2581\u0924\u0924\u094d\u0930": 678, "9": 679, "\u0947\u0902\u0917\u0947": 680, "\u0915\u094d\u0937\u0923": 681, "le": 682, "\u2581\u0915\u093f\u0902": 683, "\u0928\u0940\u092f": 684, "\u2581\u0939\u093e": 685, "et": 686, "\u0917\u0930": 687, "\u090f\u0901": 688, "\u2581T": 689, "\u2581\u092a\u0942\u0930": 690, "\u0938\u094d\u0924\u094d\u0930": 691, "\u2581\u091c\u093f\u0938\u0915": 692, "\u093c": 693, ",\"\"\"": 694, "\u2581\u0924\u0926": 695, "\u0930\u094d\u0926": 696, "\u0936\u093f": 697, "\u091d": 698, "\u092c\u0930": 699, "\u2581\u0915\u093f\u090f": 700, "\u0915\u094d\u0930\u092e": 701, "\u093f\u0924\u0935\u093e\u0928\u094d": 702, "\u2581\u0935\u093f\u0915\u0932\u094d\u092a": 703, "\u0935\u0930\u094d": 704, "\u2581\u0917\u0924\u094d\u0935\u093e": 705, "\u0936\u0941": 706, "\u2581\u092e\u0942\u0932\u094d\u092f": 707, "\u2581\u092e\u093f": 708, "\u2581\u091c\u093e\u0924\u0940": 709, "\u2581\u0930\u093e\u091c": 710, "\u2581\u0928\u093f\u091c": 711, "\u2581||": 712, "\u2581\u091a\u0947\u0924\u094d": 713, "\u2581\u092c\u093e\u0930\u0947": 714, "\u092a\u0942\u0930\u094d\u0923": 715, "\u2581\u092e\u093e\u0902": 716, "\u2581\u0915\u093e\u0930\u0923": 717, "\u2581\u092a\u094d\u0930\u0925\u092e": 718, "\u0930\u093e\u092e": 719, "\u0935\u0924\u094d": 720, "\u2581\u0905\u0924\u0903": 721, "\u093f\u0924\u094d\u0935\u093e": 722, "\u0932\u094b": 723, "\u091b": 724, "I": 725, "\u093f\u0923": 726, "\u2581\u092b\u0932": 727, "\u2581\u0905\u092d\u093f": 728, "\u093f\u0936": 729, "\u0939\u0940": 730, "\u0915\u093e\u0932": 731, "\u2581\u0909\u0924\u094d": 732, "\u0928\u094d\u0924\u0947": 733, "\u2581\u0932\u093f\u092f\u093e": 734, "A": 735, "\u2581\u00e0": 736, "\u2581\u0938\u091e\u094d\u091a\u093f\u0915\u093e": 737, "\u2581\u092d\u0935\u093e\u0928\u094d": 738, "\u2581\u0935\u094d\u092f": 739, "\u2581\u092a\u0924\u094d\u0930": 740, "\u2581\u0907\u0924\u094d\u092f\u0924\u094d\u0930": 741, "\u2581\u092d\u0935": 742, "\u2581\u0907\u0928\u094d": 743, "\u0935\u093e\u0928": 744, "\u2581\u091c\u0948\u0938\u0947": 745, "\u2581b": 746, "\u093f\u0924\u0941\u0902": 747, "\u092e\u0927\u094d\u092f\u0947": 748, "\u2581\u0924\u0941": 749, "\u2581\u0938\u092e\u0940\u092a": 750, "\u2581\u092f\u0924": 751, "\u0942\u0932": 752, "\u2581\u092a\u0941\u0924\u094d\u0930": 753, "\u2581\u0935\u094d\u092f\u093e": 754, "\u092a\u094d\u092f": 755, "\u2581\u0935\u0930\u094d\u0923": 756, "\u2581\u091c\u093e\u0928\u0947": 757, "\u0935\u0928\u094d\u0924": 758, "\u2581c": 759, "\u0922\u093c": 760, "\u2581\u0926\u0915\u094d\u0937\u093f\u0923": 761, "ic": 762, "\u2581\u0935\u094d\u092f\u0915\u094d\u0924\u093f": 763, "\u2581\u0917\u094b": 764, "\u2581\u0930\u0939\u0940": 765, "\u0930\u094d\u091c": 766, "\u0926\u093e\u0930": 767, "\u0935\u093e\u0939": 768, "\u2581\u0905\u092c": 769, "\u2581\u0938\u0928\u094d": 770, "\u2581\u092a\u0936\u094d\u092f\u093e\u092e\u0903": 771, "\u2581\u0906\u0927\u093e\u0930": 772, "\u2581\u0935\u093e\u0932\u093e": 773, "\u2581\u0907\u092e": 774, "\u2581\u0915\u0943\u0924\u0947": 775, "\u2581\u092f\u094b": 776, "\u091a\u093f\u0924": 777, "\u0915\u0932": 778, "\u2581\u0939\u092e\u0947": 779, "\u0935\u0930": 780, "\u2581\u0915\u0941\u0930\u094d\u092e\u0903": 781, "\u2581\u092d\u0935\u0928\u094d\u0924\u093f": 782, "\u2581\u0935\u094d\u092f\u0935\u0938\u094d\u0925\u093e": 783, "\u091f\u094b": 784, "\u2581\u0924\u093e\u0928\u094d": 785, "\u091c\u093c\u093e": 786, "\u2581\u0905\u0917\u0930": 787, "\u094d\u092f\u0902": 788, "\u258119": 789, "\u2581\u0930\u0938\u0942\u0932": 790, "\u2581\u092a\u094d\u0930\u0924\u094d\u092f\u0947\u0915": 791, "\u2581\u0910": 792, "\u0948\u0930": 793, "\u2581\u0938\u094d\u0924\u0930": 794, "\u0915\u094b\u0902": 795, "\u2581\u0938\u094b": 796, "\u0915\u093f\u0928": 797, "\u2581\u0907\u0926\u093e\u0928\u0940": 798, "\u2581\u0938\u092e\u091d": 799, "\u2581G": 800, "\u2581\u0936\u094d\u0930\u0940": 801, "\u092b\u0932": 802, "\u2581\u0927\u0928": 803, "\u2581\u092e\u092f\u093e": 804, "\u2581\u092d\u094b\u091c\u0928": 805, "\u090a": 806, "\u2581\u0935\u092f\u092e\u094d": 807, "\u0916\u093e": 808, "P": 809, "\u2581\u092a\u0942\u0930\u094d\u0923": 810, "\u2581\u0938\u0902\u092c\u0902\u0927": 811, "\u0938\u094d\u0924\u093f": 812, "\u0947\u0937\u093e\u0902": 813, "\u0921\u0940": 814, "\u091e\u094d\u091c": 815, "\u2581\u0926\u094b\u0928\u094b\u0902": 816, "\u2581\u0939\u0941\u0908": 817, "\u2581\u0905\u0930\u094d\u0925": 818, "\u2581\u092a\u094d\u0930\u0915\u094d\u0930\u093f\u092f\u093e": 819, "\u0924\u092f\u093e": 820, "\u2581\u091c\u093e\u090f": 821, "\u2581\u0905\u0928\u0947\u0915": 822, "\u2581\u092a\u0936\u094d\u092f": 823, "\u092d\u0942\u0924": 824, "\u2581\u0905\u0938\u094d\u092e\u093e\u092d\u093f": 825, "\u2581\u092a\u0943\u0937\u094d\u0920": 826, "\u2581\u0926\u0947\u0928\u0947": 827, "\u2581\u0905\u0928": 828, "\u2581\u0935\u093f\u0936\u094d\u0935\u093e\u0938": 829, "\u2581\u091c\u094d\u091e\u093e\u0928": 830, "\u092f\u092e": 831, "\u0939\u093f\u0924": 832, "\u2581\u092a\u094d\u0930\u0915\u093e\u0936": 833, "\u2581\u0915\u0926\u093e": 834, "\u2581\u092e\u093e\u0930\u094d\u0917": 835, "\u2581\u0935\u093f\u0926\u094d\u092f\u092e\u093e\u0928": 836, "\u092e\u0941\u091d\u0947": 837, "\u094d\u0938": 838, "\u2581\u0915\u092d\u0940": 839, "\u2581\u0938\u094d\u0935\u092f\u0902": 840, "\u2581\u091c\u0940\u0935": 841, "\u092a\u0942": 842, "\u0930\u0942\u092a\u0947\u0923": 843, "\u0942\u0928": 844, "\u2581\u0932\u0917\u093e": 845, "\u2581\u092f\u0926\u093e": 846, "\u0926\u0930\u094d\u0936": 847, "\u2581\u0915\u0930\u094b\u092e\u093f": 848, "\u2581\u0932\u094b\u0915\u093e": 849, "\"\"": 850, "\u2581\u092d\u0935\u0924\u093e": 851, "\u2581\u092f\u0940\u0936\u0941": 852, "\u0926\u0947": 853, "\u2581\u0930\u0915\u094d\u0937": 854, "\u093e\u092c": 855, "\u093e\u092a\u093f": 856, "\u092e\u0939": 857, "\u2581\u092a\u0921\u093c": 858, "\u0907\u0928": 859, "\u2581\u092a\u0936\u094d\u091a\u093e\u0924\u094d": 860, "\u093d": 861, "\u2581\u0935\u093f\u092d\u093f\u0928\u094d\u0928": 862, "\u0940\u0915\u0930\u0923": 863, "and": 864, "\u2581\u092a\u094d\u0930\u092d\u093e\u0935": 865, "\u2581\u0930\u093e\u0937\u094d\u091f\u094d\u0930\u092a\u0924\u093f": 866, "\u25813": 867, "\u093e\u092e\u0903": 868, "\u0932\u094d\u092a": 869, "\u092f\u0928\u094d\u0924": 870, "\u2581\u090f\u0937": 871, "\u092d\u093e\u0930\u0924": 872, "\u0915\u094d\u0932": 873, "\u0905\u0928\u0928\u094d\u0924\u0930\u0902": 874, "\u2581\u0909\u0924\u094d\u0924\u0930": 875, "\u2581\u0913": 876, "\u2581\u0936\u0915\u094d\u0928\u0941\u092e\u0903": 877, "\u0938\u0942\u091a": 878, "\u2581\u0906\u092f": 879, "\u0948\u0915": 880, "\u2581|\"\"\"": 881, "\u25815": 882, "\u2581\u0938\u094d\u0925\u093f\u0924\u093f": 883, "\u2581\u092d\u0947\u091c": 884, "\u2581\u0935\u0926": 885, "\u2581\u0905\u092a": 886, "\u2581\u0906\u0935\u0936\u094d\u092f\u0915": 887, "\u2581F": 888, "\u2581\u0924\u0935": 889, "\u091c\u094d\u091e\u093e\u0924": 890, "M": 891, "\u2581\u092c\u0941": 892, "\u2581\u091c\u0940": 893, "\u2581\u0935\u093f\u0936\u094d\u0935": 894, "\u2581\u092c\u0928": 895, "(": 896, "\u2581\u0938\u093e\u092e\u093e\u0928\u094d\u092f": 897, "\u2581\u0927\u094d\u092f\u093e\u0928": 898, "\u0938\u094d\u0925\u093f\u0924": 899, "\u2581B": 900, "\u093f\u0915\u094d": 901, "\u2581\u0932\u094b": 902, "\u2581\u0909\u092a\u092f\u0941\u091c\u094d\u092f": 903, "\u2581\u0930\u091a\u092f": 904, "\u2581\u0936\u0915\u094d\u0924\u093f": 905, "\u2581\u092a\u094d\u0930\u0926\u093e\u0928": 906, "\u2581\u0930\u0947": 907, "\u0926\u0930": 908, "\u2581\u092f\u0941\u0937\u094d\u092e\u093e\u0928": 909, "\u0921\u093f": 910, "\u093d\u092a\u093f": 911, "O": 912, "\u0930\u094d\u0921": 913, "\u2581\u0936\u093f": 914, "space": 915, "\u2581\u092a\u0935\u093f\u0924\u094d\u0930": 916, "...": 917, "\u2581\u0939\u0942\u0901": 918, "\u092a\u0940": 919, "\u0937\u0941": 920, "\u2581\u0908\u092e\u093e\u0928": 921, "\u2581\u0926\u0942\u0930": 922, "\u2581\u092e\u093e\u0932": 923, "\u2581\u092d\u0935\u093f\u0937\u094d\u092f\u0924\u093f": 924, "\u2581\u0905\u092a\u0928\u093e": 925, "\u0938\u094d\u092e\u093f": 926, "\u2581\u092a\u094b": 927, "\u2581I": 928, "\u2581\u0905\u0927\u093f\u0915\u093e\u0930": 929, "\u2581\u092e\u094c": 930, "\u0935\u0943\u0924\u094d\u0924": 931, "\u0937\u093f": 932, "\u2581\u0928\u093e\u0938\u094d\u0924\u093f": 933, "\u0915\u094d\u0915": 934, "\u0940\u0915\u0943\u0924": 935, "\u2581\u091c\u093c": 936, "\u0901": 937, "\u2581\u092f\u0938\u094d\u092f": 938, "\u2581\u092f\u0924\u094b": 939, "\u0926\u0930\u094d\u0936\u0928": 940, "E": 941, "\u2581\u0926\u093f\u0916\u093e": 942, "\u2581\u091a\u0940\u091c\u093c": 943, "\u0936\u094d\u0935": 944, "\u092a\u093f\u0924": 945, "\u2581\u092a\u0930\u093f\u0935\u0930\u094d\u0924\u0928": 946, "\u091f\u0930": 947, "\u0917\u094b": 948, "\u2581\u091a\u0932": 949, "\u0935\u0939": 950, "\u2581\u0907\u0924\u094d\u092f\u0947\u0924": 951, "\u092f\u0942": 952, "\u2581\u0930\u094b": 953, "\u0935\u0924": 954, "\u2581\u091c\u093f\u0928": 955, "\u2581\u0915\u094d\u0937": 956, "\u092f\u093e\u092e": 957, "\u0923\u094d": 958, "\u2581\u0915\u093f\u091e\u094d\u091a": 959, "\u092f\u0928": 960, "\u2581\u0938\u0942\u091a\u0940": 961, "\u2581\u0935\u0948": 962, "\u092f\u094b\u0902": 963, "\u0964\"\"": 964, "ur": 965, "us": 966, "\u0930\u094d\u0923": 967, "\u0915\u0941": 968, "\u093e\u0938\u0928": 969, "\u2581\u0915\u0930\u0924\u0940": 970, "\u2581\u0915\u094d\u0932\u093f\u0915\u094d": 971, "\u0924\u0938\u094d\u092e\u093e\u0924\u094d": 972, "\u0936\u094b": 973, "\u2581E": 974, "\u093e\u0902\u0936": 975, "\u2581\u0907\u0938\u0947": 976, "\u2581m": 977, "\u2581\u0935\u093f\u0937\u092f\u0947": 978, "\u0913": 979, "\u2581\u0905\u0938\u094d\u092f": 980, "\u2581\u0932\u0947\u0916": 981, "\u2581\u0921\u093f": 982, "\u2581\u0926\u0942\u0938\u0930\u0947": 983, "\u2581\u091c\u093e\u0924\u0947": 984, "\u092a\u0941": 985, "\u2581\u090f\u0924\u093e\u0926\u0943\u0936": 986, "\u2581\u092c\u0921\u093c\u093e": 987, "\u2581\u0906\u0924\u094d\u092e": 988, "\u2581\u0906\u0926\u093f": 989, "\u2581\u092a\u0941\u0928\u0903": 990, "\u091c\u094d\u091c": 991, "\u092e\u093e\u0924\u094d\u0930": 992, "\u2581\u0936\u094d\u0935\u093e\u0938": 993, "\u2581\u0938\u093e\u092e\u0928": 994, "\u2581\u0936\u0915\u094d\u0928\u094b\u0924\u093f": 995, "\u2581\u0907\u0924\u094d\u092f\u0938\u094d\u092e\u0948": 996, "\u2581\u092d\u0935\u0947\u0924\u094d": 997, "\u2581\u0909\u091a\u094d\u091a": 998, "\u0917\u094d\u0930\u0939": 999, "\u2581\u0938\u0947\u0935\u093e": 1000, "\u0926\u093e\u092f": 1001, "\u2581\u0905\u0928\u094d\u0924": 1002, "\u0938\u094d\u0935\u0930\u0942\u092a": 1003, "\u2581\u092c\u093e\u0930": 1004, "\u2581\u092e\u0928\u0941\u0937\u094d\u092f": 1005, "\u2581?": 1006, "\u0924\u094d\u0925": 1007, "\u2581\u092a\u0926": 1008, "\u091a\u0932": 1009, "C": 1010, "\u092a\u093e\u0932": 1011, "\u2581\u092e\u0942\u0932": 1012, "\u092f\u093e\u0903": 1013, "\u093e\u0938\u094d\u0924\u0947": 1014, "\u2581\u092a\u093e\u092a": 1015, "\u0928\u094d\u0926\u094d\u0930": 1016, "\u00a5": 1017, "\u2581\u0915\u0943\u0937\u094d\u0923": 1018, "\u2581\u0938\u0942\u091a\u0928\u093e": 1019, "\u2581\u091c\u093e\u090f\u0917\u093e": 1020, "N": 1021, "\u2581\u092f\u0942": 1022, "\u092f\u0939": 1023, "\u2581name": 1024, "\u092f\u093f\u0924\u094d\u0935\u093e": 1025, "\u2581\u092a\u093f\u0924\u093e": 1026, "\u25814": 1027, "\u0917\u092e\u0928": 1028, "\u2581\u092a\u093e\u0930": 1029, "\u2581\u0928\u093f\u0930": 1030, "\u2581\u0924\u0941\u092e\u094d\u0939\u0947": 1031, "\u2581\u0938\u0939\u093e\u092f\u0924\u093e": 1032, "\u2581\u092c\u0948\u0920": 1033, "\u0915\u0941\u0932": 1034, "\u0938\u094d\u0924\u093e": 1035, "\u0935\u0928\u094d\u0924\u0903": 1036, "\u2581\u0938\u0915\u0947": 1037, "\u2581\u0909\u0928\u0938\u0947": 1038, "\u0939\u092e": 1039, "\u0938\u094d\u092e\u093e\u0915\u0902": 1040, "\u2581\u092c\u0938": 1041, "\u091c\u093e\u0924": 1042, "\u092e\u093f\u0924\u093f": 1043, "\u2581\u091d": 1044, "\u093e\u092f\u093e\u0902": 1045, "\u2581\u092d\u093e\u0935": 1046, "\u092a\u0926": 1047, "\u0921\u093e": 1048, "ut": 1049, "\u2581\u0935\u093e\u0932\u0940": 1050, "\u2581\u092c\u0926\u0932": 1051, "\u092c\u0942": 1052, "\u0932\u094d\u0932": 1053, "\u2581\u0938\u0902\u092f\u094b\u091c": 1054, "\u0905\u0924\u0903": 1055, "\u2581\u0906\u0926\u0947\u0936": 1056, "\u0924\u093e\u092f\u093e": 1057, "\u2581\u0928\u093f\u0930\u094d\u092e\u093e\u0923": 1058, "\u0938\u094d\u0925\u093e": 1059, "\u2581\u092d\u093e\u0937\u093e": 1060, "\u2581\u093d": 1061, "\u0917\u0932": 1062, "\u2581\u092a\u0936\u094d\u092f\u0928\u094d\u0924\u0941": 1063, "\u2581\u092f\u094b\u091c\u0928\u093e": 1064, "\"\"\"\"": 1065, "\u0905\u0927\u0941\u0928\u093e": 1066, "\u0937\u0923": 1067, "\u2581\u0936\u093f\u0915\u094d\u0937\u093e": 1068, "\u092e\u093e\u0923": 1069, "\u0915\u093e\u0932\u0947": 1070, "\u0928\u0917\u0930": 1071, "\u093f\u0928\u094d": 1072, "\u092f\u094b\u091c\u0928": 1073, "\u0924\u0941\u0902": 1074, "\u092f\u0928\u094d\u0924\u0941": 1075, "\u091c\u094d\u091e\u093e\u0928": 1076, "\u090b": 1077, "\u2581\u0938\u093f\u0926\u094d\u0927": 1078, "\u0938\u094d\u092e\u0948": 1079, "\u2581\u0921\u093e\u0932": 1080, "\u093e\u0936\u094d\u091a": 1081, "\u2581to": 1082, "\u0935\u0926": 1083, "\u0925\u093f": 1084, "\u2581\u0908\u0936\u094d\u0935\u0930\u0938\u094d\u092f": 1085, "\u2581\u0905\u0938\u094d\u092e\u093f\u0928\u094d": 1086, "\u0943\u0924": 1087, "\u0917\u0923": 1088, "\u091a\u0930": 1089, "\u2581\u0905\u092d\u094d\u092f\u093e\u0938": 1090, "\u2581\u092e\u0947\u0925\u0921\u094d": 1091, "\u2581\u0909\u092a\u0932\u092c\u094d\u0927": 1092, "\u2581\u092d\u093f\u0928\u094d\u0928": 1093, "\u2581\u092a\u094d\u0930\u092d\u094b": 1094, "\u2581\u092b\u093c\u093e\u0907\u0932": 1095, "\u0947\u0936\u094d\u0935\u0930": 1096, "\u093e\u0928\u094d\u0924\u0930": 1097, "\u0924\u093e\u092e\u094d": 1098, "\u092c\u0940": 1099, "\u2581\u0906\u0938\u0928": 1100, "\u0926\u093f\u0928": 1101, "\u092f\u0947\u0924": 1102, "\u2581\u0917\u0923": 1103, "\u2581\u092d\u0930": 1104, "\u092d\u0942": 1105, "\u2581\u0924\u0930\u092b": 1106, "\u092a\u094d\u0930\u0924\u093f": 1107, "\u2581\u0936\u092c\u094d\u0926": 1108, "\u2581\u0924\u093e\u0915": 1109, "\u2581\u0924\u0948\u092f\u093e\u0930": 1110, "\u2581\u0926\u0943\u0936\u094d\u092f\u0924\u0947": 1111, "\u2581\u091b\u094b\u0921\u093c": 1112, "\u2581\u091f\u0919\u094d\u0915\u092f\u0928\u094d\u0924\u0941": 1113, "\u2581\u0938\u094d\u0925\u093e": 1114, "ation": 1115, "\u093e\u0932\u092f": 1116, "\u2581\u092c\u091a\u094d\u091a": 1117, "\u0917\u0943\u0939": 1118, "\u2581do": 1119, "\u093e\u0926\u093f": 1120, "\u090f\u0915": 1121, "\u2581\u0938\u094d\u0915": 1122, "\u2581\u092f\u093e\u0926": 1123, "\u0928\u093e\u092e\u094d\u0928": 1124, "\u2581\u0926\u0947\u0924\u093e": 1125, "\u2581\u0938\u094d\u091f": 1126, "\u2581\u0930\u093e\u0937\u094d\u091f\u094d\u0930\u0940\u092f": 1127, "\u2581\u092b\u093c": 1128, "\u2581\u092d\u0935\u093f\u0937\u094d\u092f": 1129, "\u0935\u0930\u094d\u0923": 1130, "\u091a\u093f\u0924\u094d": 1131, "\u2581\u092a\u094d\u0930\u093e\u0923": 1132, "\u2581\u0928\u0941\u0926\u0924\u0941": 1133, "\u2581\u090a\u092a\u0930": 1134, "\u2581\u092a\u094d\u0930\u092d\u0941": 1135, "\u2581\u0935\u093f\u092d\u093e\u0917": 1136, "\u2581\u092a\u093f\u0924\u0930": 1137, "\u2581\u092a\u0930\u0940\u0915\u094d\u0937": 1138, "\u2581\u0926\u094b\u0937": 1139, "\u2581\u0939\u094b\u0917\u0940": 1140, "th": 1141, "\u2581\u0926\u0924\u094d\u0924": 1142, "\u0928\u094d\u0927": 1143, "\u0924\u0943": 1144, ",\"\"\"\"\"\"\"": 1145, "\u2581\u0938\u094d\u0925\u093f\u0924": 1146, "\u2581\u0921\u0930": 1147, "la": 1148, "\u2581\u0932\u093e\u092d": 1149, "\u092d\u0935\u0924\u094d": 1150, "\u2581\u0915\u0930\u094d\u092e\u094d\u092e": 1151, "ion": 1152, "\u0938\u0919\u094d\u0916\u094d\u092f\u093e": 1153, "\u2581\u092a\u094d\u0930\u092f\u093e\u0938": 1154, "\u2581\u092a\u0948\u0926\u093e": 1155, "\u2581\u0938\u0930\u094d\u0935\u094d\u0935\u0947": 1156, "\u2581D": 1157, "\u0938\u092c\u0938\u0947": 1158, "\u2581\u0935\u0947\u0930\u093f\u092f\u0947\u092c\u0932\u094d": 1159, "\u2581\u092a\u0920": 1160, "\u0930\u094d\u0924\u094d\u0924": 1161, "\u2581\u0926\u0930": 1162, "\u2581\u0935\u0939\u0940": 1163, "\u092b\u093f\u0930": 1164, "\u0926\u0947\u0935": 1165, "\u2581\u092e\u0927\u094d\u092f": 1166, "\u2581\u0935\u093e\u092e": 1167, "\u2581\u0926\u0943\u0937\u094d\u091f": 1168, "\u2581\u0932\u0921\u093c": 1169, "\u2581\u0930\u093e\u092e": 1170, "\u0921\u093c\u0940": 1171, "\u091c\u0940\u0935": 1172, "\u0905\u0924\u094d\u0930": 1173, "\u093e\u0928\u0940": 1174, "\u2581\u0939\u0938\u094d\u0924": 1175, "\u0926\u0943\u0936\u094d\u092f": 1176, "\u2581\u0905\u0932\u0917": 1177, "\u2581\u091a\u093f": 1178, "\u2581\u0938\u093e\u0930": 1179, "\u2581\u0915\u0948": 1180, "\u2581\u092e\u093e\u0928\u0935": 1181, "\u2581\u0938\u0902\u0926\u0947\u0936": 1182, "\u2581\u090f\u0924\u093e": 1183, "\u2581\u092c\u093f\u0928\u093e": 1184, "\u2581\u0915\u0930\u094d\u092e": 1185, "\u2581in": 1186, "\u2581\u0926\u094d\u0935\u093f\u0924\u0940\u092f": 1187, "\u2581\u0918\u0930": 1188, "\u2581\u0936\u093f\u0937\u094d\u092f": 1189, "\u2581\u0906\u0935\u0936\u094d\u092f\u0915\u0924\u093e": 1190, "\u2581\u092f\u0926\u094d": 1191, "\u0938\u094d\u0924\u0941": 1192, "\u2581\u0930\u093f": 1193, "\u2581\u0915\u094d\u0930": 1194, "\u2581\u0905\u0928\u0941\u0938\u093e\u0930": 1195, "\u2581\u0924\u0924\u094b": 1196, "\u0909\u0938\u0938\u0947": 1197, "ce": 1198, "\u0967": 1199, "\u2581\u0936\u0915\u094d\u0928\u0941\u0935\u0928\u094d\u0924\u093f": 1200, "\u0924\u094d\u0924\u093e": 1201, "\u2581\u0939\u094b\u0928\u093e": 1202, "ow": 1203, "\u2581\u0917\u0924": 1204, "\u0902\u0926\u094d\u0930": 1205, "\u2581O": 1206, "\u2581\u0935\u093e\u0915\u094d\u092f": 1207, "\u2581\u0924\u0938\u094d\u092e\u093f\u0928\u094d": 1208, "\u2581\u092a\u094d\u0930\u0936\u094d\u0928": 1209, "\u2581\u0935\u0915\u094d\u0924": 1210, "ch": 1211, "\u2581\u091a\u092f\u0928": 1212, "B": 1213, "\u2581\u0915\u094d\u0930\u093f\u092f\u093e": 1214, "\u0935\u093f\u0937\u092f": 1215, "\u092a\u0926\u093e\u0930\u094d\u0925": 1216, "\u2581\u091a\u093e\u0932": 1217, "\u2581\u0938\u092e\u094d\u092c\u0928\u094d\u0927": 1218, "\u0928\u093f\u0930\u094d\u0926\u093f\u0937\u094d\u091f": 1219, "\u2581\u0938\u092e\u094d\u092a\u0942\u0930\u094d\u0923": 1220, "\u2581of": 1221, "\u2581Ent": 1222, "\u2581\u0905\u0927\u093f": 1223, "\u2581\u092f\u0926\u094d\u092f": 1224, "\u0932\u092d": 1225, "\u0936\u0940\u0932": 1226, "\u092a\u0941\u0930": 1227, "\u2581\u092a\u094d\u0930\u0923": 1228, "\u2581\u0926\u0936": 1229, "\u2581\u092a\u0941\u0930\u0941\u0937": 1230, "\u2581\u0917\u0941\u0923": 1231, "\u0935\u093e\u0915\u094d\u092f": 1232, "\u2581\u0938\u0902\u0938\u094d\u0925\u093e": 1233, "\u0916\u094d\u092f\u093e": 1234, "\u2581\u092e\u0948": 1235, "\u2581\u092a\u0924": 1236, "\u2581\u0915\u0943\u092a\u092f\u093e": 1237, "\u2581\u0905\u0927\u093f\u0928\u093f\u092f\u092e": 1238, "\u2581\u0938\u093e\u0930\u094d\u0926\u094d\u0927": 1239, "\u2581\u0926\u094d\u0930\u0937\u094d\u091f\u0941\u0902": 1240, "\u2581\u0938\u0915\u0924\u0940": 1241, "\u2581\u0924\u092c": 1242, "\u2581\u0938\u092e\u093e\u0928": 1243, "\u2581\u092c\u0922\u093c": 1244, "\u2581\u092e\u0947\u0930": 1245, "\u2581\u092d\u0935\u0928\u094d\u0924": 1246, "\u0926\u0942\u0924": 1247, "\u2581\u0909\u0926\u094d": 1248, "\u2581\u092e\u0941\u0916\u094d\u092f": 1249, "\u2581\u0922": 1250, "\u092f\u0926\u093f": 1251, "\u2581\u0914": 1252, "\u093e\u0924\u094d\u092e\u0915": 1253, "\u2581\u092e\u0947\u0930\u0940": 1254, "\u0927\u0928": 1255, "\u093e\u092f\u093e\u0903": 1256, "\u2581\u092a\u0924\u093e": 1257, "\u2581\u092a\u0941\u0928": 1258, "\u2581\u0915\u093e\u0930": 1259, "K": 1260, "\u2581\u091c\u094d\u092f\u093e\u0926\u093e": 1261, "\u2581\u0928\u0940\u091a\u0947": 1262, "\u2581\u0915\u0930\u0947\u0917\u093e": 1263, "\u0909\u0938\u0928\u0947": 1264, "\u2581\u0938\u0902\u0938\u094d\u0915\u0943\u0924": 1265, "\u258120": 1266, "\u2581\u0907\u0924\u094d\u0925": 1267, "\u2581\u091c\u093f\u0938\u092e\u0947": 1268, "\u2581\u0905\u0935\u0938\u0930": 1269, "\u0909\u0938": 1270, "\u0935\u0926\u0924\u094d": 1271, "\u092c\u0926\u094d\u0927": 1272, "\u2581\u092f\u0941\u0937\u094d\u092e\u093e\u092d\u093f": 1273, "\u0915\u0930\u094d\u0924\u093e": 1274, "\u2581\u0915\u0941\u0930\u0941": 1275, "\u0915\u093e\u0930\u0940": 1276, "\u2581\u0906\u092f\u093e": 1277, "\u0922": 1278, "\u2581L": 1279, "L": 1280, "F": 1281, "\u0935\u093e\u0926\u0940": 1282, "\u0927\u0930": 1283, "\u092e\u0942\u0932": 1284, "\u2581\u0927\u0930\u094d\u092e": 1285, "\u094d\u092f\u0928\u094d\u0924\u0947": 1286, "\u2581\u092a\u0915\u094d\u0937": 1287, "\u092c\u0921\u093c\u0940": 1288, "\u2581\u092c\u0939\u093f": 1289, "\u2581\u0915\u0930\u0923\u0940\u092f": 1290, "\u2581\u0938\u092e\u093e\u092a\u094d\u0924": 1291, "\u0924\u0926\u0930\u094d\u0925\u0902": 1292, "\u2581\u0939\u093e\u0925": 1293, "\u2581\u0916\u094d\u0930\u0940\u0937\u094d\u091f": 1294, "\u2581\u0926\u093f\u0932": 1295, "\u2581\u0907\u0938\u0938\u0947": 1296, "\u091a\u0947\u0924": 1297, "\u092e\u092f": 1298, "\u2581\u091a\u093e\u0939": 1299, "\u2581\u0935\u092f\u092e": 1300, "\u0930\u093e\u091c\u094d\u092f": 1301, "\u0936\u0947\u0937": 1302, "\u092e\u0941\u0916": 1303, "\u2581\u0930\u092c": 1304, "\u2581\u0935\u094d\u092f\u0935": 1305, "ave": 1306, "\u0940\u0936\u094d\u0935\u0930": 1307, "\u2581\u0909\u0938\u0940": 1308, "\u2581\u0938\u092e\u0938\u094d\u092f\u093e": 1309, "\u2581f": 1310, "\u2581\u092a\u091e\u094d\u091a": 1311, "\u2581\u2013": 1312, "\u2581\u0930\u0941": 1313, "\u2581\u0921\u0940": 1314, "\u2581\u0932\u093f\u0916\u093f\u0924": 1315, "\u0939\u093e\u0901": 1316, "\u2581\u0906\u092a\u0915": 1317, "\u0930\u0941\u092a": 1318, "\u25810": 1319, "\u2581\u0906\u0908": 1320, "\u0915\u093f\u0928\u094d\u0924\u0941": 1321, "\u2581N": 1322, "\u092a\u094d\u0930\u0915\u093e\u0930": 1323, "\u0930\u093e\u0937\u094d\u091f\u094d\u0930": 1324, "\u2581\u092c\u0932": 1325, "\u091a\u093f\u0939\u094d\u0928": 1326, "\u2581\u0938\u0942\u0930\u094d\u092f": 1327, "\u2581\u092a\u0930\u0938\u094d\u092a\u0930": 1328, "\u2581\u0906\u0924\u094d\u092e\u093e": 1329, "\u2581\u0926\u0943\u0937\u094d\u091f\u0941\u0902": 1330, "\u2581\u0939\u094b\u0902\u0917\u0947": 1331, "\u2581\u092c\u093e\u0939\u0930": 1332, "\u2581\u0909\u0920\u093e": 1333, "\u2581\u0935\u0938\u094d\u0924\u0941": 1334, "\u094d\u092f\u0941": 1335, "\u2581\u092e\u0941\u0926\u094d\u0930\u093e": 1336, "\u2581\u091f\u094d\u092f\u0941\u091f\u094b\u0930\u093f\u092f\u0932\u094d": 1337, "\u2581\u092c\u0939": 1338, "\u2581\u092a\u0948": 1339, "int": 1340, "\u094d\u092f\u093e\u0903": 1341, "\u2581\u0932\u0917\u0947": 1342, "\u092f\u093e\u092e\u0903": 1343, "\u2581\u0930\u093e\u0924": 1344, "\u2581\u091a\u0941\u0915": 1345, "\u093f\u0917\u093e\u0930": 1346, "\u2581\u0924\u0938\u094d\u092f\u093e": 1347, "\u0935\u0930\u0926": 1348, "\u0935\u0930\u094d\u0924\u094d\u0924": 1349, "\u2581\u0907\u0924\u0940\u092e\u093e\u0928\u093f": 1350, "\u2581\u091c\u094d\u091e\u093e\u0938\u094d\u092f\u093e\u092e\u0903": 1351, "\u2581\u0915\u094d\u0932\u093e\u0938\u094d": 1352, "\u2581\u0932\u0918\u0941": 1353, "\u2581the": 1354, "\u2581\u092c\u0921\u093c\u0947": 1355, "\u2581\u0938\u094d\u0935\u0930\u094d\u0917": 1356, "\u2581\u092f\u0924\u0903": 1357, "\u2581\u0924\u0938\u094d\u092e\u093e\u0926\u094d": 1358, "\u2581\u092f\u093f\u0939\u0942\u0926\u0940\u092f\u093e": 1359, "\u093f\u0919\u094d\u0917\u094d": 1360, "\u2581\u092a\u094d\u0930\u093e\u092a\u094d\u092f": 1361, "\u2581\u092e\u0917\u0930": 1362, "\u2581\u0917\u0923\u094d\u0921": 1363, "\u2581\u092c\u0928\u094d\u0926": 1364, "\u092c\u093e\u0930": 1365, "\u2581\u0938\u092b\u0932": 1366, "\u2581\u092a\u0939\u0932": 1367, "\u0915\u093e\u0930\u094d\u092f": 1368, "\u0927\u093f\u0915\u093e\u0930": 1369, "\u2581\u092f\u0940\u0936\u0941\u0903": 1370, "\u2581\u092d\u0942\u0924": 1371, "\u2581\u0930\u091a\u0928\u093e": 1372, "\u0939\u0942": 1373, "\u092c\u0928\u094d\u0927": 1374, "\u2581\u0924\u094c": 1375, "\u093f\u0937\u094d\u092f\u0924\u0947": 1376, "ad": 1377, "\u2581H": 1378, "\u092e\u0947\u0932": 1379, "ment": 1380, "\u2581\u0906\u0938\u0940\u0924\u094d": 1381, "\u2581\u0928\u094d\u092f\u0942\u0928": 1382, "\u2581\u092e\u0943\u0924\u094d\u092f\u0941": 1383, "\u2581\u0915\u094d\u092f\u094b\u0902\u0915\u093f": 1384, "\u2581\u0916\u094b\u0932": 1385, "\u2581\u0938\u092e\u0930\u094d\u0925": 1386, "\u2581\u0906\u092f\u0924": 1387, "\u0917\u093c": 1388, "\u2581\u0928\u0917\u0930": 1389, "\u090f\u0938": 1390, "\u2581\u0905\u091a\u094d\u091b\u093e": 1391, "\u2581\u0907\u0938\u0940": 1392, "\u2581\u092c\u094d\u0930": 1393, "\u092a\u093e\u0920": 1394, "\u2581\u091a\u093e\u0939\u0924\u093e": 1395, "\u0924\u0926\u093e": 1396, "\u2581\u0915\u0930\u0915\u0947": 1397, "\u2581\u0906\u090f": 1398, "\u0935\u0930\u094d\u0937": 1399, "\u2581\u092a\u0942\u0930\u094d\u0935\u094d\u0935": 1400, "\u092d\u093f\u0903": 1401, "\u2581\u0924\u093e\u0926\u0943\u0936": 1402, "\u2581\u092a\u0939\u0941\u0902\u091a": 1403, "\u2581\u0924\u0925\u0948\u0935": 1404, "\u2581\u092a\u0940\u091b\u0947": 1405, "\u2581\u091f\u0919\u094d\u0915\u092f\u093f\u0924\u094d\u0935\u093e": 1406, "\u2581ne": 1407, "\u2581\u0909\u0924\u094d\u0924\u092e": 1408, "\u092e\u0928\u094d\u0924\u094d\u0930": 1409, "\u0938\u094d\u091f\u094d\u0930": 1410, "\u2581\u0928\u093f\u092f\u092e": 1411, "\u2581\u0938\u092e\u0941\u0926\u094d\u0930": 1412, "\u2581\u092f\u0941\u0935\u093e": 1413, "\u2581\u092a\u094d\u0930\u0915\u091f\u092f": 1414, "\u2581\u0935\u093e\u0915\u094d\u092f\u0902": 1415, "\u2581\u092e\u0930": 1416, "\u0927\u093e\u0930\u093e": 1417, "\u2581\u091c\u093f\u0928\u094d\u0939": 1418, "\u0943\u0924\u094d\u092f": 1419, "\u2581\u0907\u0938\u092e\u0947": 1420, "\u093e\u0907\u0932": 1421, "\u2581\u092e\u0926": 1422, "\u0928\u094d\u092f\u093e\u0938": 1423, "\u0935\u0947\u0936": 1424, "\u0928\u093f\u092e\u093f\u0924\u094d\u0924\u0902": 1425, "\u0926\u0923\u094d\u0921": 1426, "\u0928\u0941\u0938\u0902\u0927\u093e\u0928": 1427, "\u2581\u092b\u093c\u094b\u0932\u094d\u0921\u0930": 1428, "\u2581\u0936\u0941\u0930\u0942": 1429, "\u2581\u0935\u0943\u0915\u094d\u0937": 1430, "\u2581\u0905\u092a\u0947\u0915\u094d\u0937": 1431, "\u2581\u0928\u093f\u0936\u094d\u091a\u093f\u0924": 1432, "\u0921\u094c\u0928\u094d": 1433, "\u2581\u0938\u0939\u093e\u092f\u0915": 1434, "\u2581\u0938\u092e\u0930\u094d\u092a": 1435, "\u2581\u0915\u093e\u092b\u0940": 1436, "\u092a\u0947\u091f": 1437, "\u2581\u090f\u0924\u0947\u0937\u093e": 1438, "\u2581\u0915\u0925\u093f\u0924\u0935\u093e\u0928\u094d": 1439, "\u2581U": 1440, "\u2581\u092a\u0941\u0928\u0930": 1441, "\u2581\u0935\u0930\u094d": 1442, "\u2581\u092f\u093e\u0935\u0924\u094d": 1443, "\u2581\u092a\u0942\u0930\u093e": 1444, "\u0915\u094d\u0930\u093f\u092f\u093e": 1445, "\u2581\u0935\u093f\u0935\u0930\u0923": 1446, "\u2581\u0917\u092f\u0947": 1447, "\u0915\u0925": 1448, "\u2581\u092a\u094d\u0930\u091a\u093e\u0930": 1449, "\u2581\u091f\u094d\u0930": 1450, "\u092e\u093e\u0938": 1451, "\u093e\u092d\u093f": 1452, "\u258110": 1453, "\u093f\u0937\u094d\u092f\u0924\u093f": 1454, "\u0915\u094d\u0930\u093f\u092f": 1455, "\u25811.": 1456, "\u092a\u0941\u091f": 1457, "\u0915\u0943\u0924\u093f": 1458, "\u0942\u0901": 1459, "\u0924\u0924\u094d": 1460, "vi": 1461, "\u2581\u0924\u092e": 1462, "ha": 1463, "\u0905\u0939\u092e\u094d": 1464, "\u2581\u092e\u0924\u094d": 1465, "\u00a43\u20444": 1466, "\u2581\u091f\u0919\u094d\u0915\u092f\u0924\u0941": 1467, "\u2581\u0936\u0915\u094d\u092f\u0924\u0947": 1468, "\u2581\u091c\u0939\u093e\u0902": 1469, "\u2581\u092e\u0939\u0924\u094d\u0935\u092a\u0942\u0930\u094d\u0923": 1470, "\u2581\u0917\u092f\u0940": 1471, "\u0924\u0928\u094d\u0924\u094d\u0930": 1472, "\u2581\u0938\u0902\u0916\u094d\u092f\u093e": 1473, "\u092e\u0947\u0915\u0902": 1474, "\u2581\u0935\u0930\u094d\u0917": 1475, "\u092a\u0924\u094d\u0930": 1476, "\u2581\u091c\u0928\u094d\u092e": 1477, "\u2581\u0928\u093f\u0915\u0932": 1478, "\u0938\u094d\u0925\u093e\u092f": 1479, "\u0917\u091a\u094d\u091b\u0924\u093f": 1480, "\u093f\u0924\u0941\u092e\u094d": 1481, "\u2581\u0918\u091f": 1482, "\u2581\u092e\u0941\u0916": 1483, "\u092f\u0941\u0917": 1484, "\u2581\u092f\u0903": 1485, "\u2581\u092a\u094d\u0930\u093e\u092f": 1486, "\u2581W": 1487, "\u0915\u0925\u093e": 1488, "\u092a\u093e\u0930\u094d\u0936\u094d\u0935": 1489, "\u093e\u0928\u093e\u092e\u094d": 1490, "\u2581\u092f\u0947\u0928": 1491, "\u2581\u0932\u0917": 1492, "\u2581\u0915\u094d\u0930\u0940\u0921": 1493, "&": 1494, "\u2581not": 1495, "\u2581\u091a\u093f\u0928\u094d\u0935\u0928\u094d\u0924\u0941": 1496, "\u2581\u0915\u0943\u0937\u093f": 1497, "\u2581\u0932\u0915\u094d\u0937\u094d\u092f": 1498, "\u2581\u092f\u0941\u0926\u094d\u0927": 1499, "\u2581\u091b\u093e\u0924\u094d\u0930": 1500, "\u2581\u0915\u093f\u0928\u094d\u0924\u094d\u0935": 1501, "\u2581\u0909\u0926\u094d\u092f\u094b\u0917": 1502, "\u2581\u0916\u0941\u0932": 1503, "ash": 1504, "\u2581\u0928\u093f\u0930\u094d\u0926\u0947\u0936": 1505, "\u2581\u0921\u0949": 1506, "\u092c\u094d\u0927": 1507, "000": 1508, "\u2581\u092a\u094d\u0930\u092e\u0941\u0916": 1509, "\u2581\u0924\u0940\u0928": 1510, "\u2581\u0930\u094b\u0917": 1511, "\u2581\u0928\u093f\u0936\u094d\u091a\u092f": 1512, "\u2581\u0938\u0941\u0928": 1513, "\u0905\u092a\u0930\u091e\u094d\u091a": 1514, "\u093e\u092e\u0939\u0947": 1515, "\u093e\u0924\u094d\u092e\u093e": 1516, "\u2581\u0938\u094d\u0935\u0940\u092f": 1517, "\u2581\u0917\u0940\u0924": 1518, "\u0932\u094b\u0915\u093e": 1519, "\u092e\u0941\u0926\u094d\u0930": 1520, "\u092f\u093e\u0901": 1521, "\u2581\u092c\u0922\u093c\u093e": 1522, "Y": 1523, "\u0966": 1524, "J": 1525, "\u0926\u0942\u0938\u0930\u0940": 1526, "\u2581\u0905\u0927\u0940\u0928": 1527, "\u2581\u092c\u0932\u094d\u0915\u093f": 1528, "\u2581\u0935\u093f\u0926\u094d\u092f\u0924\u0947": 1529, "\u2581\u092a\u0941\u0938\u094d\u0924\u0915": 1530, "\u2581\u0926\u093e\u0938": 1531, "\u2581\u091f\u0919\u094d\u0915": 1532, "\u2581\u0926\u093f\u090f": 1533, "\u2581\u092a\u094c\u0932": 1534, "\u2581\u0935\u093e\u092a\u0938": 1535, "\u092e\u094d\u092c\u0930": 1536, "\u094d\u092f\u094b": 1537, "\u0947\u092d\u094d\u092f\u094b": 1538, "\u2581\u091c\u0941": 1539, "\u2581\u092c\u0928\u093e\u092f\u093e": 1540, "ra": 1541, "\u2581\u0930\u0942": 1542, "\u2581\u0907\u0924\u094d\u092f\u0947\u0924\u0947\u0937\u093e": 1543, "\u0926\u093e\u0938": 1544, "\u0938\u094d\u0924\u0930": 1545, "\u2581\u0907\u0938\u0932\u093f\u090f": 1546, "\u092f\u0924\u094d": 1547, "\u2581\u090f\u0924\u0947": 1548, "\u0938\u092e\u092f\u0947": 1549, "\u0928\u0941\u0938\u093e\u0930": 1550, "\u2581\u0924\u0948": 1551, "\u0938\u094d\u0924\u0938\u094d\u092f": 1552, "\u2581\u090f\u0915\u094d\u0938": 1553, "\u2581\u0928\u093f\u0937\u094d\u0915\u093e\u0938": 1554, "\u2581\u0926\u094c\u0930\u093e\u0928": 1555, "\u2581\u092a\u094d\u0930\u094b\u0917\u094d\u0930\u093e\u092e\u094d": 1556, "\u2581\u0915\u0902\u092a\u0928\u0940": 1557, "\u2581\u0920\u0940\u0915": 1558, "\u2581\u0905\u0917\u094d\u0930\u093f\u092e": 1559, "\u2581\u0936\u093e\u092e\u093f\u0932": 1560, "\u2581\u092e\u0942\u0938\u093e": 1561, "\u2581\u0938\u092a\u094d\u0924": 1562, "\u2581\u0905\u0902\u0924": 1563, "\u2581\u0928\u093f\u0915\u091f": 1564, "\u0932\u0947\u0916": 1565, "\u0938\u0902\u0917\u0940\u0924": 1566, "\u2581\u092e\u0941\u0915\u094d\u0924": 1567, "\u2581\u091a\u093e\u0939\u0924": 1568, "\u2581\u092e\u0943\u0924": 1569, "\u2581\u0935\u093f\u0935\u093f\u0927": 1570, "\u0928\u093f\u0930\u094d\u092e\u093f\u0924": 1571, "\u2581\u091a\u0932\u093e": 1572, "\u0926\u094d\u0935\u092f": 1573, "\u2581\u0906\u092a\u0915\u094b": 1574, "\u0936\u094d\u0935\u0938\u0928": 1575, "\u2581\u0916\u0921\u093c": 1576, "\u2581\u092a\u0941\u0930": 1577, "\u2581\u0915\u0947\u0928\u094d\u0926\u094d\u0930": 1578, "\u2581\u0915\u094d\u0930\u092e": 1579, "\u2581\u0930\u093e\u091c\u093e": 1580, "\u0928\u093e\u0925": 1581, "\u0927\u0941\u0928\u093e": 1582, "\u092f\u0928\u094d\u0924\u093f": 1583, "\u0915\u094d\u0937\u0947\u0924\u094d\u0930": 1584, "\u0915\u092e\u094d\u092a": 1585, "ter": 1586, "V": 1587, "\u2581\u092a\u094d\u0930\u0926\u0930\u094d\u0936\u092f\u0924\u093f": 1588, "\u2581\u0915\u0941\u0930\u094d\u0935\u0928\u094d\u0924\u093f": 1589, "\u2581\u0939\u0942\u0902": 1590, "\u2581\u092c\u0924\u093e": 1591, "\u2581\u0938\u092e\u094d\u092f\u0915\u094d": 1592, "\u2581\u0938\u093e\u0927\u0928": 1593, "age": 1594, "\u092c\u094b\u0927": 1595, "\u2581\u0935\u093f\u091c\u094d\u091e\u093e\u0928": 1596, "\u0937\u094d\u092e": 1597, "\u2581\u092a\u094d\u0930\u092f\u094b\u091c\u0928": 1598, "\u2581\u0938\u094d\u0925\u093e\u092a\u092f": 1599, "\u2581\u0924\u093e\u0928\u093f": 1600, "\u2581\u0909\u0915\u094d\u0924": 1601, "\u2581\u092f\u0942\u092f\u092e": 1602, "\u2581\u0938\u094b\u091a": 1603, "\u092a\u0930\u094d\u0935": 1604, "\u2581\u0935\u093f\u0927\u093f": 1605, "\u2581\u091c\u0948\u0938\u093e": 1606, "\u2581\u0924\u093f\u0937\u094d\u0920": 1607, "\u2581\u0939\u093e\u0928\u093f": 1608, "\u0938\u093f\u0932": 1609, "\u0942\u092e": 1610, "\u0917\u093e\u0930": 1611, "ill": 1612, "\u2581\u092f\u0924\u094d\u0930": 1613, "\u2581\u092c\u0948": 1614, "\u0915\u0908": 1615, "\u2581\u0905\u0924\u093f\u0930\u093f\u0915\u094d\u0924": 1616, "\u2581\u0905\u0928\u0941\u0936\u093f\u0915\u094d\u0937\u0923": 1617, "\u092b\u0940\u0932\u094d\u0921\u094d": 1618, "\u092c\u094b\u0915\u094d\u0938\u094d": 1619, "\u2581\u092a\u0943\u0937\u094d\u091f": 1620, "\u093e\u0930\u092e\u094d\u092d": 1621, "\u092e\u0947\u0923\u094d\u091f\u094d": 1622, "\u2581\u0924\u0924\u0938\u094d\u0924": 1623, "\u092c\u0947\u0936\u0915": 1624, "\u2581\u0938\u094d\u0925\u093e\u092a\u093f\u0924": 1625, "\u2581\u092c\u094b\u0932": 1626, "\u2581\u092f\u094b\u0917\u094d\u092f": 1627, "\u092a\u0930\u094d\u092f\u0928\u094d\u0924": 1628, "\u2581\u0915\u0943\u0924\u0935\u093e\u0928\u094d": 1629, "\u2581\u0926\u0947\u0935": 1630, "\u2581\u092a\u094d\u0930\u0938\u093e\u0930": 1631, "\u2581\u0930\u094b\u0915": 1632, "\u2581\u092e\u093f\u0924\u094d\u0930": 1633, "\u2581\u0915\u0930\u094b\u0924\u0941": 1634, "\u2581\u0909\u0926\u093e\u0939\u0930\u0923": 1635, "um": 1636, "\u2581\u092c\u0941\u0930\u093e": 1637, "\u2581\u0926\u0947\u0924\u0947": 1638, "\u2581\u0927\u093e\u0930\u093e": 1639, "\u2581\u0938\u092e\u093f\u0924\u093f": 1640, "\u0916\u094d\u0924": 1641, "\u090f\u0924\u093e\u0928\u093f": 1642, "\u0936\u093e\u0938\u094d\u0924\u094d\u0930": 1643, "\u0936\u0928\u094d": 1644, "\u2581\u0905\u0902\u0924\u0930": 1645, "\u2581\"(": 1646, "\u2581\u092a\u0930\u0928\u094d\u0924\u0941": 1647, "\u2581\u0905\u0917\u094d\u0930\u0947": 1648, "\u0923\u093e\u0902": 1649, "\u2581\u0921\u0947": 1650, "\u2581\u092e\u0939\u094d\u092f": 1651, "\u2581\u0906\u0935\u093e": 1652, "U": 1653, "G": 1654, "\u2581\u0935\u093f\u0936\u094d\u0930\u093e\u092e": 1655, "\u0938\u094d\u092e\u093e\u092d\u093f\u0903": 1656, "\u2581\u0936\u094d\u0930\u0941\u0924": 1657, "\u2581\u092a\u0948\u0930": 1658, "optional": 1659, "\u2581\u0938\u094d\u0935\u093e\u0938\u094d\u0925\u094d\u092f": 1660, "\u2581\u0915\u0941\u0930\u094d\u092f\u093e\u0924": 1661, "\u2581\u0935\u093f\u0936\u093f\u0937\u094d\u091f": 1662, "\u2581\u0907\u0924\u094d\u092f\u0928\u0947\u0928": 1663, "\u2581\u090f\u0938": 1664, "\u2581\u092a\u094d\u0930\u0938\u094d\u0924\u0941\u0924": 1665, "\u2581\u0938\u0902\u0938\u093e\u0930": 1666, "\u0938\u094d\u092e\u093e\u0928\u094d": 1667, "\u2581\u091c\u093e\u0928\u0915\u093e\u0930\u0940": 1668, "\u2581\u092a\u094d\u0930\u0947\u092e": 1669, "\u2581\u0928\u093f\u0935\u0947\u0936": 1670, "\u2581\u0915\u093e\u0930\u094d\u092f\u0915\u094d\u0930\u092e": 1671, "\u2581\u092b\u0948\u0932": 1672, "\u2581\u092d\u0942\u0924\u094d\u0935\u093e": 1673, "\u2581\u091c\u093e\u0913": 1674, "\u2581\u0909\u091a\u093f\u0924": 1675, "\u0926\u094d\u0935\u092f\u0902": 1676, "\u0919": 1677, "\u2581\u092a\u0936\u094d\u092f\u093e\u092e": 1678, "\u2581\u0938\u0940\u092e\u093e": 1679, "\u091c\u0942": 1680, "\u092e\u093f\u0926\u0902": 1681, "id": 1682, "\u2581\u092a\u0930\u093f\u0923\u093e\u092e": 1683, "\u0916\u0941\u0926\u093e": 1684, "\u0930\u094d\u091c\u0928": 1685, "\u2581\u0916\u093e\u0924\u093e": 1686, "\u2581\u090f\u0937\u093e": 1687, "\u0947\u0936\u0928\u094d": 1688, "\u2581\u0930\u0939\u0928\u0947": 1689, "ir": 1690, "ou": 1691, "\u25812.": 1692, "\u2581\u0907\u0924\u0928": 1693, "\u2581\u0926\u0947\u0939": 1694, "\u2581\u091a\u0941\u0915\u093e": 1695, "\u0947\u092d\u094d\u092f": 1696, "\u2581\u090f\u0924\u0938\u094d\u092f": 1697, "\u2581\u0938\u094d\u0935\u0938\u094d\u0925": 1698, "\u093f\u0937\u094d\u091f": 1699, "+": 1700, "\u2581\u092a\u094d\u0930\u0936\u093f\u0915\u094d\u0937\u0923": 1701, "\u2581\u0909\u0924\u094d\u092a\u0928\u094d\u0928": 1702, "\u0938\u0926\u0943\u0936": 1703, "\u2581\u0915\u0930\u094d\u0924\u094d\u0924\u0941": 1704, "\u0917\u094d\u0930\u0928\u094d\u0925": 1705, "\u2581\u0907\u0924\u093f\u0939\u093e\u0938": 1706, "\u2581\u090b\u0923": 1707, "\u2581\u0935\u0943\u0926\u094d\u0927\u093f": 1708, "\u2581\u0905\u0928\u0941\u092e\u0924\u093f": 1709, "\u2581\u0924\u0947\u091c": 1710, "\u0941\u0915\u094d\u0924": 1711, "\u2581\u0939\u093f\u0902\u0926": 1712, "\u0937\u094d\u0923": 1713, "\u2581\u0924\u093f\u0937\u094d\u0920\u0924\u093f": 1714, "\u2581\u0909\u092a\u092f\u0941\u0915\u094d\u0924": 1715, "\u2581\u0907\u0924\u0940\u0926\u092e\u094d": 1716, "\u2581\u0905\u0935\u0936\u094d\u092f": 1717, "\u2581\u0938\u0902\u092f\u0941\u0915\u094d\u0924": 1718, "\u0905\u0939\u0902": 1719, "\u0940\u092f\u0924\u0947": 1720, "\u2581\u091c\u093e\u0928\u0924\u0947": 1721, "\u2581\u0938\u0902\u092c\u0902\u0927\u093f\u0924": 1722, "\u2581\u091b\u0935\u093f": 1723, "\u2581\u092a\u0930\u0940\u0915\u094d\u0937\u093e": 1724, "\u2581\u0905\u0938\u094d\u092e\u093f": 1725, "\u2581\u0926\u0941\u0928\u093f\u092f\u093e": 1726, "\u091a\u093f\u0924\u094d\u0930": 1727, "\u093f\u0928\u094b": 1728, "\u2581\u0926\u0947\u0928\u093e": 1729, "\u2581\u0905\u0928\u094d\u0935": 1730, "\u2581\u0915\u0925\u092f": 1731, "\u093f\u0937\u094d\u092f\u0928\u094d\u0924\u093f": 1732, "\u0930\u093e\u091c": 1733, "\u2581\u0905\u0926\u094d\u092f": 1734, "\u2581\u0938\u092d\u093e": 1735, "\u2581\u0936\u093f\u0915\u094d\u0937": 1736, "\u0915\u094d\u092f\u093e": 1737, "\u2581\u0909\u0928\u0915\u094b": 1738, "\u2581\u0938\u094d\u092a\u0937\u094d\u091f": 1739, "\u2581\u0932\u0947\u0928\u0947": 1740, "Name": 1741, "\u2581\u0905\u0927\u094d\u092f\u092f\u0928": 1742, "\u2581\u0928\u093f\u0930\u094d\u0927\u093e\u0930\u093f\u0924": 1743, "\u2581\u0917\u0943\u0939\u0940\u0924\u094d\u0935\u093e": 1744, "\u2581\u0938\u092e\u0942\u0939": 1745, "\u2581\u092a\u0930\u093f\u092f\u094b\u091c\u0928\u093e": 1746, "\u2581\u0915\u093f\u091e\u094d\u091a\u093f\u0924\u094d": 1747, "\u2581\u0928\u093f\u0930\u094d\u0923\u092f": 1748, "\u00a4\u00b0": 1749, "\u092e\u0947\u0937": 1750, "\u2581\u0938\u0928\u094d\u0924": 1751, "\u2581\u0907\u0924\u094d\u092f\u0938\u094d\u092f\u094b\u092a\u0930\u093f": 1752, "\u2581\u092e\u0902\u0924\u094d\u0930": 1753, "\u2581\u091c\u094b\u0921\u093c": 1754, "\u2581\u0926\u0943\u0937\u094d\u091f\u094d\u0935\u093e": 1755, "\u2581\u0938\u094d\u092f\u093e\u0924\u094d": 1756, "\u2581\u0930\u093e\u0939": 1757, "\u2581\u0938\u0928\u094d\u0924\u093e\u0928": 1758, "\u093f\u0924\u0935\u0928\u094d\u0924\u0903": 1759, "\u2581\u0938\u0939\u093f\u0924": 1760, "\u2581pro": 1761, "\u2581\u0930\u0915\u094d\u0924": 1762, "\u093e\u0938\u094d\u0924\u093f": 1763, "\u2581\u0905\u0938\u094d\u092f\u093e": 1764, "\u2581\u0924\u094d\u0930\u093f": 1765, "\u2581\u0939\u0947\u0924\u0941": 1766, "\u2581\u0918\u091f\u0928\u093e": 1767, "11": 1768, "\u2581\u0935\u0930\u094d\u0927": 1769, "\u2581\u091c\u093e\u092f\u0947": 1770, "dot": 1771, "\u092f\u0925\u093e": 1772, "\u0915\u094d\u091f": 1773, "\u2581\u091a\u0941\u0928": 1774, "\u093e\u092d\u094d\u092f\u093e": 1775, "\u2581\u092d\u0935\u0924\u0941": 1776, "\u2581\u092c\u0940\u091c": 1777, "\u2581\u092a\u094d\u0930\u093f\u092f": 1778, "\u2581\u0905\u091c\u093c": 1779, "\u0924\u0925\u093e": 1780, "\u2581\u0928\u093e\u0928\u093e": 1781, "\u0932\u094b\u0915\u093e\u0928\u094d": 1782, "\u0928\u0941\u092e": 1783, "\u2581\u092c\u091a": 1784, "\u2581\u0939\u0941": 1785, "ction": 1786, "ver": 1787, "\u2581File": 1788, "\u2581\u0907\u0938\u094d\u0924\u0947\u092e": 1789, "\u2581\u092a\u094d\u0930\u0947\u0930\u093f\u0924": 1790, "\u2581\u0906\u0928\u0928\u094d\u0926": 1791, "\u2581\u0921\u0947\u091f\u093e": 1792, "\u2581\u0939\u0941\u0915\u094d": 1793, "\u2581\u0905\u0927\u0903": 1794, "\u2581\u0938\u0926\u0938\u094d\u092f": 1795, "\u2581\u092a\u0947\u0936": 1796, "\u0917\u0941\u0930\u0941": 1797, "\u0917\u0941\u0923": 1798, "19": 1799, "\u2581\u092a\u0930\u093f\u0935\u093e\u0930": 1800, "\u2581\u092a\u094d\u0930\u092e\u093e\u0923": 1801, "\u2581\u0938\u0930\u0932": 1802, "\u2581\u0935\u093e\u092f\u0941": 1803, "\u2581\u0938\u093f\u0935\u093e": 1804, "\u2581\u0905\u0928\u0947\u0928": 1805, "\u0917\u091a\u094d\u091b\u0924": 1806, "\u2581\u0938\u092e\u093e\u091c": 1807, "\u2581\u0926\u0943\u0937\u094d\u091f\u093f": 1808, "\u2581\u092c\u0928\u093e\u0928\u0947": 1809, "\u0924\u094c\u0930": 1810, "\u0921\u093f\u092f\u094b": 1811, "\u2581\u0938\u0919\u094d\u0917": 1812, "\u2581\u0915\u0939\u0924": 1813, "\u0924\u093e\u0913\u0902": 1814, "\u0930\u093e\u0935": 1815, "\u2581200": 1816, "\u2581\u092a\u094d\u0930\u0915\u093e\u0936\u093f\u0924": 1817, "\u0939\u0940\u0928": 1818, "abl": 1819, "\u2581\u092d\u0935\u0928": 1820, "\u2581\u092e\u0943": 1821, "\u2581\u092a\u094d\u0930\u093e\u092a\u094d\u0924\u0941": 1822, "\u2581\u092e\u0947\u0930\u093e": 1823, "\u0930\u094d\u0907": 1824, "ab": 1825, "Linux": 1826, "\u091f\u0930\u094d\u092e\u093f\u0928\u0932\u094d": 1827, "\u2581\u092d\u0935\u0926\u094d\u092d\u093f\u0903": 1828, "\u2581\u092a\u094d\u0930\u093e\u0930\u0902\u092d": 1829, "\u00a5\u0087": 1830, "\u2581\u0938\u0941\u0935\u093f\u0927\u093e": 1831, "\u0928\u093e\u091c\u093c\u093f\u0932": 1832, "\u2581\u0905\u0902\u0924\u093f\u092e": 1833, "\u2581\u092a\u0915\u0921\u093c": 1834, "\u2581\u0935\u093f\u0938\u094d\u0924\u093e\u0930": 1835, "\u2581\u0932\u093f\u092f\u0947": 1836, "\u2581\u0905\u091a\u094d\u091b\u0947": 1837, "\u2581\u0918\u094b\u0937": 1838, "\u2581\u0935\u093e\u0932\u094b\u0902": 1839, "\u2581\u092a\u093e\u0928\u0940": 1840, "\u2581\u0938\u0941\u0927\u093e\u0930": 1841, "\u2581\u091a\u0924\u0941\u0930\u094d": 1842, "\u092a\u094d\u0930\u093e\u092a\u094d\u0924": 1843, "\u2581\u0939\u0947\u0924\u094b": 1844, "out": 1845, "\u2581\u092a\u093e\u0932\u0928": 1846, "10": 1847, "\u2581\u0905\u0935\u0927\u093f": 1848, "\u2581\u0917\u0924\u093f": 1849, "\u0915\u094d\u0937\u0947\u092a": 1850, "\u092e\u0940\u091f\u0930": 1851, "\u092a\u0936\u094d\u092f": 1852, "\u2581\u0930\u0939\u0924\u0947": 1853, "\u0917\u094d\u0930\u0938\u094d\u0924": 1854, "\u092f\u0925\u093e\u0930\u094d\u0925": 1855, "\u2581\u092e\u093e\u092e\u0932\u0947": 1856, "\u2581\u092f\u0926": 1857, "\u2581\u091c\u093f\u0928\u0915": 1858, "\u2581\u0938\u094d\u092a": 1859, "\u0915\u093e\u0936": 1860, "\u2581\u0930\u0928\u094d": 1861, "\u2581\u0915\u0932\u093e": 1862, "\u2581\u0928\u0939\u0940": 1863, "\u091c\u093e\u0930\u0940": 1864, "\u2581\u092f\u0941\u0937\u094d\u092e\u093e": 1865, "\u2581\u0909\u0924\u094d\u092a\u093e\u0926": 1866, "\u0938\u092d\u093e": 1867, "ble": 1868, "\u0938\u094d\u092f\u094b\u092a\u0930\u093f": 1869, "\u2581translat": 1870, "\u2581\u0915\u0936\u094d\u091a\u093f\u0924\u094d": 1871, "\u2581\u0938\u0902\u092a\u0930\u094d\u0915": 1872, "\u2581\u0932\u0917\u092d\u0917": 1873, "\u2581\u0915\u0920\u093f\u0928": 1874, "\u2581\u092c\u0930\u093e\u092c\u0930": 1875, "\u2581\u092e\u094c\u091c\u0942\u0926": 1876, "\u2581\u092a\u0941\u0937\u094d\u092a": 1877, "\u2581\u0938\u094d\u0925\u093f\u0930": 1878, "\u2581\u0926\u0926\u093e\u0924\u093f": 1879, "\u2581\u092a\u0930\u092e\u0947\u0936\u094d\u0935\u0930": 1880, "\u091c\u0947\u0915\u094d\u091f": 1881, "\u2581\u0935\u093e\u0938\u094d\u0924\u0935": 1882, "\u092e\u093e\u0930\u094d\u0915": 1883, "\u2581\u0939\u093f\u0938\u094d\u0938": 1884, "\u0927\u0940\u0930\u0947": 1885, "\u2581\u0930\u0947\u0916\u093e": 1886, "\u2581\u0915\u0939\u0940\u0902": 1887, "\u2581\u0906\u0915\u093e\u0930": 1888, "\u0941\u0924\u094d\u0924\u0930": 1889, "\u2581\u0905\u0939\u092e": 1890, "\u2581\u0916\u0902\u0921": 1891, "\u2581\u0906\u0915\u093e\u0936": 1892, "\u2581\u0917\u0935\u093e\u0939": 1893, "\u2581\u092a\u094d\u0930\u093e\u0930\u094d\u0925\u092f": 1894, "H": 1895, "\u092e\u093e\u0930\u094d\u0917": 1896, "\u0935\u0902\u0936": 1897, "\u2581''": 1898, "\u0917\u094d\u0930\u0939\u0923": 1899, "\u2581\u091c\u0948\u0938": 1900, "\u2581\u0915\u0930\u0947\u0902\u0917\u0947": 1901, "\u092c\u094d\u092c": 1902, "\u25813.": 1903, "\u0926\u093f\u0936": 1904, "\u2581\u091c\u093e\u0928\u0924\u093e": 1905, "\u2581\u0935\u093f\u0926\u0947\u0936": 1906, "\u2581\u092e\u0928\u094b": 1907, "\u2581\u091c\u092e\u093e": 1908, "\u0926\u093f\u0935\u0938": 1909, "\u2581\u0909\u092a\u0938\u094d\u0925\u093f\u0924": 1910, "ri": 1911, "\u2581\u0928\u093f\u0915\u093e\u0932": 1912, "\u2581\u0938\u0902\u0938\u094d\u0925\u093e\u0928": 1913, "up": 1914, "\u094d\u092f\u092e\u093e\u0928": 1915, "\u2581\u092d\u0915\u094d\u0924": 1916, "\u2581\u0936\u093f\u0930": 1917, "\u2581\u0930\u0916\u0947\u0902": 1918, "\u0936\u094d\u0930\u092e": 1919, "\u2581\u0915\u0939\u0928": 1920, "\u2581\u0915\u094d\u092f\u094b\u0902": 1921, "\u2581\u092a\u0939\u091a\u093e\u0928": 1922, "\u2581\u0909\u0926\u094d\u0918\u093e\u091f\u092f": 1923, "\u2581\u090f\u0915\u094d\u0938\u093f\u0915\u094d\u092f\u0942": 1924, "\u2581\u092f\u0915\u093c\u0940\u0928": 1925, "\u0938\u094d\u092a\u094b\u0915\u0928\u094d": 1926, "\u2581\u0906\u0936\u094d\u091a\u0930\u094d\u092f": 1927, "\u2581\u0936\u0948\u0924\u093e\u0928": 1928, "unt": 1929, "\u2581\u0905\u0902\u0917\u094d\u0930\u0947\u091c": 1930, "\u0905\u0924\u090f\u0935": 1931, "\u2581\u0928\u094d\u092f\u093e\u092f\u093e\u0932\u092f": 1932, "\u2581\u0935\u093f\u0936\u094d\u0935\u0935\u093f\u0926\u094d\u092f\u093e\u0932\u092f": 1933, "\u2581\u0915\u094d\u0937\u092e\u0924\u093e": 1934, "\u2581\u092b\u0932\u093f\u0924\u0902": 1935, "\u2581\u0936\u094d\u0930\u0941\u0924\u094d\u0935\u093e": 1936, "\u2581\u0916\u0947\u0932": 1937, "\u2581\u091c\u093e\u090f\u0917\u0940": 1938, "\u2581\u092d\u0942\u092e\u093f\u0915\u093e": 1939, "\u2581\u0907\u091a\u094d\u091b\u093e": 1940, "\u2581\u0905\u0930\u094d\u0925\u093e\u0924\u094d": 1941, "\u2581\u092a\u094d\u0930\u0935\u0947\u0936": 1942, "\u2581\u0938\u094d\u0935\u0940\u0915\u0943\u0924": 1943, "\u2581\u0926\u094d\u0935\u093f": 1944, "\u2581\u0907\u0928\u0915\u093e\u0930": 1945, "\u2581\u0936\u0939\u0930": 1946, "\u2581\u0906\u0901": 1947, "\u0909\u0928\u0915": 1948, "\u2581\u0938\u092e\u0915\u094d\u0937": 1949, "\u0924\u094d\u0935\u0947\u0928": 1950, "\u0905\u0938\u094d\u092e\u093f\u0928\u094d": 1951, "\u2581\u0905\u0917\u094d\u0930": 1952, "\u0936\u0915\u094d\u0924\u093f": 1953, "ry": 1954, "\u093e\u0910\u0902": 1955, "\u2581\u0926\u093e\u0924\u0941": 1956, "\u092e\u0947\u0928\u094d": 1957, "\u2581\u092c\u0926\u0932\u093e": 1958, "\u2581\u0906\u0917\u0924\u094d\u092f": 1959, "\u2581\u092d\u0935\u093f\u0924\u0941": 1960, "\u092f\u094c": 1961, "\u2581\u092f\u093f\u0939\u0942\u0926": 1962, "\u0917\u094d\u0930\u093e\u0939": 1963, "\u2581\u092f\u093f\u0930\u0942\u0936\u093e\u0932\u092e": 1964, "\u2581\u090a\u0930\u094d\u091c\u093e": 1965, "\u2581\u0938\u0902\u0935\u093f\u0927\u093e\u0928": 1966, "\u0938\u093e\u092e\u0917\u094d\u0930\u0940": 1967, "\u2581\u092e\u0939\u093f\u0932\u093e": 1968, "\u2581\u0905\u0924\u094d\u092f\u0928\u094d\u0924": 1969, "\u2581\u092a\u0936\u094d\u091a\u093f\u092e": 1970, "\u2581\u0938\u093e\u0915\u094d\u0937\u094d\u092f": 1971, "\u2581\u0924\u0947\u0937\u093e\u092e": 1972, "\u2581\u091c\u093e\u092f\u0924\u0947": 1973, "ell": 1974, "\u2581\u0915\u093f\u0924\u093e\u092c": 1975, "\u2581\u092c\u0948\u0902\u0915": 1976, "\u0938\u092e\u094d\u092c\u0926\u094d\u0927": 1977, "\u2581\u0928\u0941\u0924\u094d\u0935\u093e": 1978, "\u2581\u0936\u094d\u0930\u094b\u0924": 1979, "\u2581\u0935\u0926\u093e\u092e\u093f": 1980, "\u2581\u0930\u093f\u0915\u094d\u0924": 1981, "\u0914": 1982, "\u2581\u0935\u093f\u0924\u094d\u0924": 1983, "com": 1984, "\u2581\u0926\u0930\u094d\u0936\u092f\u0924\u093f": 1985, "\u2581\u0932\u0902\u092c": 1986, "\u0935\u093f\u0930\u094b\u0927": 1987, "\u2581\u092a\u0922\u093c": 1988, "\u2581\u091c\u093f\u0938\u0938\u0947": 1989, "\u2581\u0924\u0930\u0940\u0915": 1990, "\u2581Re": 1991, "all": 1992, "\u2581\u0905\u0902\u0917": 1993, "\u093e\u0917\u0924\u094d\u092f": 1994, "\u0915\u0930\u094d\u092e\u094d\u092e": 1995, "\u2581\u091c\u0928\u093e\u0903": 1996, "\u2581\u092c\u093e\u092a": 1997, "\u092e\u0947\u0915": 1998, "\u2581\u0924\u0928\u094d\u0928": 1999, "\u2581\u0930\u0916\u0924\u0947": 2000, "\u2581\u091a\u093f\u0924\u094d\u0935\u093e": 2001, "\u0941\u0926\u093e": 2002, "\u2581\u091a\u0915\u094d\u0930": 2003, "\u2581\u0928\u0939\u093f": 2004, "\u2581\u092e\u0939\u0924\u094d\u0935": 2005, "\u2581\u092a\u0939\u0941\u0901\u091a": 2006, "\u2581\u092a\u0939\u0941\u0901\u091a\u093e": 2007, "\u2581\u0928\u093f\u0927\u093f": 2008, "()": 2009, "\u2581\u092e\u093e\u0927\u094d\u092f\u092e": 2010, "\u2581\u0921\u093e\u0915": 2011, "\u2581\u0935\u0939\u093e\u0902": 2012, "\u2581for": 2013, "\u2581\u0906\u0917\u0924": 2014, "\u2581\u0905\u0928\u0941\u092d\u0935": 2015, "\u0936\u0915\u094d\u0924": 2016, "\u0935\u0936\u094d\u092f": 2017, "\u092d\u094d\u0930\u093e\u0924": 2018, "\u0935\u0943\u0926\u094d\u0927": 2019, "Book": 2020, "tutorial": 2021, "\u2581\u0921\u094d\u0930\u094b\u092a\u094d": 2022, "\u2581\u092a\u094d\u0930\u094c\u0926\u094d\u092f\u094b\u0917\u093f\u0915\u0940": 2023, "\u2581\u092e\u0902\u0926\u093f\u0930": 2024, "\u2581\u0938\u094d\u0935\u0924\u0902\u0924\u094d\u0930": 2025, "\u008d": 2026, "\u2581\u0909\u0926\u094d\u0926\u0947\u0936\u094d\u092f": 2027, "\u2581\u0917\u094c\u0930\u0935": 2028, "\u2581enter": 2029, "awk": 2030, "\u2581\u0935\u094d\u092f\u093e\u092a\u093e\u0930": 2031, "\u2581\u092a\u0942\u091b": 2032, "\u2581\u092a\u094d\u0930\u0938\u0928\u094d\u0928": 2033, "\u2581\u091c\u0917\u0939": 2034, "\u2581\u092a\u094d\u0930\u092e\u093e\u0923\u092a\u0924\u094d\u0930": 2035, "\u0938\u0902\u0926\u0947\u0939": 2036, "\u2581\u092a\u094d\u0930\u0927\u093e\u0928": 2037, "\u2581\u0932\u094c\u091f": 2038, "\u094d\u0932\u0948": 2039, "Cit": 2040, "\u2581\u0938\u0939\u092f\u094b\u0917": 2041, "\u092a\u094b\u0930\u094d\u091f": 2042, "\u2581\u0926\u0943\u0922": 2043, "\u2581\u0930\u0902\u0917": 2044, "\u2581\u0907\u0926\u092e\u094d": 2045, "\u093e\u0927\u093f\u0915": 2046, "\u2581\u092e\u0926\u0926": 2047, "\u092a\u0936\u094d\u091a\u093e\u0924\u094d": 2048, "\u0936\u092c\u094d\u0926": 2049, "\u2581\u0935\u0939\u093e\u0901": 2050, "\u2581\u0909\u0924\u094d\u092a\u093e\u0926\u0928": 2051, "\u2581\u092a\u0925": 2052, "\u091a\u094d\u091b\u0947\u0924": 2053, "\u2581\u092a\u0941\u0928\u0930\u094d": 2054, "\u0930\u0915\u094d\u0937\u0923": 2055, "\u2581\u0939\u0935\u093e": 2056, "\u2581\u0915\u094c\u0928": 2057, "\u0938\u094d\u0925\u093f\u0924\u094c": 2058, "\u2581\u0932\u093e\u0907": 2059, "?\"\"": 2060, "\u2581quot": 2061, "\u2581\u0909\u0926\u094d\u0918\u093e\u091f\u093f\u0924": 2062, "\u2581\u092e\u0928\u094d\u0926\u093f\u0930": 2063, "\u2581\u0938\u0941\u0930\u0915\u094d\u0937\u093e": 2064, "\u2581\u091c\u093c\u092e\u0940\u0928": 2065, "\u2581\u0935\u093f\u0915\u0938\u093f\u0924": 2066, "ext": 2067, "\u2581\u0916\u093f\u0932\u093e": 2068, "\u0906\u0917\u091a\u094d\u091b\u0928\u094d\u0924\u0941": 2069, "\u0915\u0925\u092f\u0924\u094d": 2070, "ode": 2071, "\u2581\u092d\u094d\u0930\u092e": 2072, "\u2581\u0938\u092e\u0941\u092a": 2073, "\u2581\u091d\u0941\u0915": 2074, "\u2581\u0906\u091c\u094d\u091e\u093e": 2075, "\u2581\u0915\u0935\u093f\u0924\u093e": 2076, "ps": 2077, "\u2581is": 2078, "\u0923\u094d\u091f\u094d": 2079, "\u2581\u0906\u0902\u0916": 2080, "\u2581\u092d\u094d\u0930\u093e\u0924\u0930": 2081, "\u2581\u092c\u093e\u091c\u093e\u0930": 2082, "\u2581\u0938\u0928\u094d\u0926\u0947\u0936": 2083, "\u0928\u0941\u0917\u094d\u0930\u0939": 2084, "\u2581\u092f\u0940\u0936\u0941\u0938\u094d\u0924": 2085, "\u2581\u0907\u0924\u094d\u092f\u0947\u0924\u0924\u094d": 2086, "\u2581\u092a\u093e\u092f\u093e": 2087, "\u2581\u0928\u0940\u0924\u093f": 2088, "\u2581\u0938\u0915\u094d\u0930\u093f\u092f": 2089, "\u2581\u0915\u0941\u0924\u094d\u0930": 2090, "\u0928\u093f\u0930\u094d\u092e\u093e\u0923": 2091, "\u2581\u092a\u0936\u094d\u092f\u0924\u093f": 2092, "\u0907\u0926\u0902": 2093, "\u0935\u093f\u0937\u094d\u091f": 2094, "\u2581\u0930\u0916\u0928\u0947": 2095, "\u0932\u094b\u0915\u093e\u0928\u093e": 2096, "\u0917\u091a\u094d\u091b\u0928\u094d": 2097, "\u093e\u0923\u093e\u092e": 2098, "\u2581\u092a\u0936\u094d\u091a\u093e\u0924": 2099, "\u0928\u093f\u0926\u094d\u0930": 2100, "\u092f\u093f\u0937\u094d\u092f\u0924\u093f": 2101, "z": 2102, "\u0945": 2103, "\u096a": 2104, "\u2581\u0905\u0928\u093f\u0935\u093e\u0930\u094d\u092f": 2105, "\u2581\u0936\u0915\u094d\u0928\u094b\u092e\u093f": 2106, "\u2581\u0932\u093f\u0919\u094d\u0915\u094d": 2107, "\u2581\u0938\u093e\u092e\u093e\u091c\u093f\u0915": 2108, "\u093e\u0928\u0928\u094d\u0924\u0930\u0902": 2109, "j": 2110, "\u2581\u091a\u093f\u0928\u094b\u092e\u093f": 2111, "\u2581\u091c\u093c\u0930\u0942\u0930": 2112, "\u2581\u092c\u0947\u0939\u0924\u0930": 2113, "test": 2114, "\u2581\u0917\u091a\u094d\u091b\u093e\u092e": 2115, "\u2581\u091a\u093f\u0928\u094d\u0924\u092f": 2116, "\u2581\u0938\u0902\u0930\u091a\u0928\u093e": 2117, "\u2581\u0906\u0938\u094d\u0924\u0947": 2118, "\u2581\u0924\u094d\u092f\u091c": 2119, "\u0936\u0941\u0926\u094d\u0927": 2120, "\u2581\u092e\u093e\u092e\u0932": 2121, "\u2581\u0915\u0948\u0938\u0947": 2122, "\u2581\u092d\u0942\u092e\u093f": 2123, "\u2581\u0926\u093f\u0936\u093e": 2124, "\u0926\u0948\u0935": 2125, "\u2581\u092a\u094d\u0930\u0915\u0943\u0924\u093f": 2126, "\u2581\u0906\u0938\u093e\u0928": 2127, "\u2581\u0930\u091a\u093f\u0924": 2128, "\u2581\u0939\u0915\u093c": 2129, "\u2581\u091c\u093e\u090f\u0901": 2130, "if": 2131, "\u2581\u0909\u092a\u0915\u0930\u0923": 2132, "\u2581\u092c\u0939\u0935": 2133, "\u2581\u0938\u094d\u0924\u094d\u0930\u093f\u092f": 2134, "\u2581\u0906\u0926\u092e": 2135, "\u0924\u0926\u093e\u0928\u0940": 2136, "\u2581\u0938\u0902\u0918": 2137, "\u2581\u0907\u0926\u092e": 2138, "\u2581\u091f\u093f": 2139, "\u2581\u0907\u0924\u0940\u0926": 2140, "\u0938\u091e\u094d\u091a\u093f\u0915\u093e": 2141, "\u0930\u093e\u0937\u094d\u091f\u094d\u0930\u0940\u092f": 2142, "\u2581\u0938\u091e\u094d\u091a\u093f\u0915\u093e\u092f\u093e": 2143, "\u2581\u092d\u094b\u091c": 2144, "\u2581\u0936\u0916": 2145, "\u0924\u093f\u0937\u094d\u0920\u0928\u094d": 2146, "\u092d\u0935\u093f\u0937\u094d\u092f": 2147, "\u2581\u092a\u094d\u0930\u0915\u091f": 2148, "\u0928\u094d\u0939\u0947\u0902": 2149, "\u090f\u0935\u092e\u0947\u0935": 2150, "hyphen": 2151, "\u2581Koha": 2152, "\u2581\u092d\u0935\u0926\u094d\u092d\u094d\u092f\u0903": 2153, "@": 2154, "\u2581\u092a\u094d\u0930\u093e\u091a\u0940\u0928": 2155, "\u2581equal": 2156, "\u2581\u0906\u0902\u0915\u0921\u093c": 2157, "\u2581\u0926\u093f\u0932\u094d\u0932\u0940": 2158, "\u0923\u094d\u091f\u0930\u094d": 2159, "\u2581\u0935\u0930\u094d\u0924\u092e\u093e\u0928": 2160, "\u2581\u092e\u0928\u0941\u091c": 2161, "\u2581\u0915\u093e\u0928\u0942\u0928": 2162, "\u2581\u0906\u0938\u092e\u093e\u0928": 2163, "\u2581\u092a\u094d\u0930\u0924\u093f\u0936\u0924": 2164, "\u2581\u0924\u0915\u0928\u0940\u0915": 2165, "\u094b\u0924\u094d\u0924\u092e": 2166, "\u2581\u0905\u0902\u0926\u0930": 2167, "\u0935\u093e\u0928\u0938\u094d\u092e\u093f": 2168, "\u2581\u091c\u093e\u0902\u091a": 2169, "\u2581\u0935\u093f\u0902\u0921\u094b": 2170, "\u2581\u0936\u093e\u0916\u093e": 2171, "\u2581\u090f\u0924\u0938\u094d\u092e\u093f\u0928\u094d": 2172, "\u2581\u092c\u0922": 2173, "\u0938\u0942\u0924\u094d\u0930": 2174, "\u2581De": 2175, "\u2581\u0938\u094d\u0935\u093e\u0917\u0924\u092e\u094d": 2176, "\u092e\u092f\u093f": 2177, "\u2581\u0936\u093e\u0938\u0928": 2178, "\u2581\u092c\u0941\u0932\u093e": 2179, "sion": 2180, "\u2581\u0927\u0943\u0924": 2181, "\u2581\u0926\u0930\u094d\u0936\u093f\u0924": 2182, "\u2581\u0932\u0917\u0924\u093e": 2183, "\u2581\u0916\u0941\u0926": 2184, "\u2581\u0924\u0902\u0924\u094d\u0930": 2185, "\u2581\u091c\u0930\u0942\u0930\u0924": 2186, "\u0917\u0928\u094d\u0924\u0941\u0902": 2187, "\u2581\u0915\u0925\u092f\u093e\u092e\u093e\u0938": 2188, "\u2581\u0938\u094d\u0925\u093e\u0928\u0940\u092f": 2189, "\u2581\u0938\u0924\u094d\u0924\u093e": 2190, "\u2581\u0938\u092e\u094d\u092a": 2191, "W": 2192, "\u0924\u094d\u0938\u0941": 2193, "\u093e\u0936\u092f": 2194, "\u2581\u0908\u0936\u094d\u0935\u0930\u0940\u092f": 2195, "\u092e\u0948\u0902": 2196, "\u0938\u093e\u0927\u094d\u092f": 2197, "\u092d\u0942\u092f": 2198, "\u2581\u0915\u093f\u0924\u0928": 2199, "\u2581de": 2200, "\u092c\u093f\u0928\u094d\u0926": 2201, "\u0965": 2202, "\u2581\u091d\u0941\u0920\u0932\u093e": 2203, "\u2581\u091f\u0947\u0915\u094d\u0938\u094d\u091f\u094d": 2204, "\u0924\u0926\u0928\u0928\u094d\u0924\u0930\u0902": 2205, "\u0968": 2206, "\u2581bracket": 2207, "\u2581with": 2208, "\u2581\u092a\u094d\u0930\u093e\u092a\u094d\u0928\u094b\u0924\u093f": 2209, "\u2581\u0935\u093f\u0930\u0941\u0926\u094d\u0927": 2210, "\u2581\u0938\u0941\u0928\u093f\u0936\u094d\u091a\u093f\u0924": 2211, "\u092c\u094d\u0930\u0947\u0915\u0947\u091f\u094d": 2212, "\u2581\u0909\u0932\u094d\u0932\u0947\u0916": 2213, "\u00bf": 2214, "\u2581\u091a\u0930\u094d\u091a\u093e": 2215, "\u0906\u0916\u093c\u093f\u0930": 2216, "\u2581\u0938\u093e\u0915\u094d\u0937\u093e\u0924\u094d": 2217, "\u2581\u092c\u094d\u0930\u093f\u091f": 2218, "\u2581\u0915\u094d\u0930\u093f\u092f\u0924\u0947": 2219, "\u2581\u092a\u094d\u0930\u093e\u0930\u094d\u0925\u0928\u093e": 2220, "\u2581\u0917\u0941\u092a\u094d\u0924": 2221, "\u2581\u0930\u093e\u0936\u093f": 2222, "\u2581\u0928\u0935\u0940\u0928": 2223, "\u091c\u093e\u0932\u092a\u0941\u091f": 2224, "iz": 2225, "\u2581\u0905\u0927\u093f\u0915\u093e\u0902\u0936": 2226, "\u2581\u0938\u0902\u0938\u0926": 2227, "\u2581\u0938\u093f\u0930\u094d\u092b": 2228, "\u2581\u0928\u094d\u092f\u093e\u092f": 2229, "\u2581\u0905\u0935\u0938\u094d\u0925\u093e": 2230, "\u2581\u0938\u094d\u0935\u0940\u0915\u093e\u0930": 2231, "\u0935\u093e\u0930\u094d\u0924\u094d\u0924\u093e": 2232, "\u2581\u0916\u093e\u0926\u094d\u092f": 2233, "\u2581\u0935\u093f\u0935\u0930\u0923\u093e\u0928\u093f": 2234, "org": 2235, "\u2581\u092c\u093e\u0924\u0947\u0902": 2236, "\u0917\u0923\u0928\u093e": 2237, "\u2581\u092e\u091c\u094d\u091c": 2238, "44": 2239, "\u2581\u0924\u0926\u0947\u0935": 2240, "\u2581\u0926\u0947\u0917\u093e": 2241, "\u2581\u0915\u0930\u094d\u0923": 2242, "\u0924\u0935\u094d\u092f\u092e\u094d": 2243, "\u0901\u0939": 2244, "\u0938\u094d\u092e\u093e\u0926\u094d": 2245, "spoken": 2246, "\u0930\u0941\u0923": 2247, "00": 2248, "\u2581\u092a\u093e\u0926\u092a": 2249, "\u092d\u0915\u094d\u0924\u093f": 2250, "\u092a\u0941\u0924\u094d\u0930": 2251, "\u093e\u091c\u094d\u091e\u093e": 2252, "\u2581\u0915\u0930\u094d\u0937": 2253, "\u093d\u0939\u0902": 2254, "\u0916\u0923\u094d\u0921": 2255, "\u093f\u092f\u0928": 2256, "\u2581\u0938\u0930\u094d\u0935\u094d\u0935\u0947\u0937\u093e": 2257, "X": 2258, "]": 2259, "\u2581\u0909\u092a\u092f\u094b\u0915\u094d\u0924\u0941": 2260, "\u2581\u0924\u094d\u0930\u0941\u091f\u093f": 2261, "\u2581\u0939\u0943\u0926\u092f": 2262, "\u2581\u0907\u0924\u094d\u092f\u0938\u094d\u092e\u093e\u0924\u094d": 2263, "\u2581\u0915\u0930\u094d\u0924\u0941\u092e\u094d": 2264, "\u2581\u091c\u094d\u091e\u093e\u092a\u092f": 2265, "\u2581\u0907\u0938\u094d\u0932\u093e\u092e": 2266, "\u2581\u0926\u0938\u094d\u0924\u093e\u0935\u0947\u091c": 2267, "\u2581\u091a\u093f\u0928\u094b\u0924\u0941": 2268, "\u2581\u0928\u0941\u0926\u093e\u092e\u093f": 2269, "ult": 2270, "\u0935\u0948\u091c\u094d\u091e\u093e\u0928\u093f\u0915": 2271, "\u2581\u091b\u094b\u091f\u0947": 2272, "\u2581\u0932\u093e\u0917\u0942": 2273, "\u092e\u0939\u094b\u0926\u092f": 2274, "\u2581\u0938\u0902\u0936\u094b\u0927": 2275, "\u2581\u0910\u0915\u093e\u0928\u094d": 2276, "\u2581\u092a\u094d\u0930\u0915\u0932\u094d\u092a": 2277, "\u2581\u0938\u092e\u094d\u092e\u0941\u0916": 2278, "\u2581\u0935\u093f\u0923\u094d\u0921\u094b": 2279, "\u2581\u0920\u0939\u0930": 2280, "\u0938\u0902\u0927\u093e\u0930\u093f\u0915\u093e": 2281, "\u2581\u0921\u093f\u0938\u094d\u0915": 2282, "\u2581\u0916\u0930\u0940\u0926": 2283, "\u2581\u0916\u094b\u091c": 2284, "\u094b\u0924\u094d\u0924\u0930": 2285, "\u092a\u0942\u0930\u094d\u0924\u093f": 2286, "\u2581\u091c\u093e\u090f\u0901\u0917\u0947": 2287, "\u2581\u091c\u0932\u094d\u0926": 2288, "\u2581\u0915\u094b\u0930\u094d\u0938\u094d": 2289, "\u2581\u0915\u0943\u0924\u0935\u0928\u094d\u0924\u0903": 2290, "\u2581\u092f\u093e\u0924\u094d\u0930\u093e": 2291, "\u2581\u0938\u094d\u0924\u094d\u0930\u0940": 2292, "\u094b\u093d\u0938\u094d\u0924\u093f": 2293, "\u0941\u0915\u094d\u0924\u094d\u0935\u093e": 2294, "\u2581In": 2295, "\u0926\u094d\u0935\u0940\u092a": 2296, "gm": 2297, "\u2581\u0917\u093f\u0930": 2298, "\u0936\u094d\u0924": 2299, "\u2018": 2300, "\u2581\u092c\u0939\u093f\u0930\u094d": 2301, "ive": 2302, "\u2581\u092a\u0947\u0930": 2303, "\u0915\u094d\u091f\u0930": 2304, "\u2581\u0905\u0938\u094d\u092e\u093e": 2305, "\u0935\u093f\u0926\u094d\u092f\u093e\u0932\u092f": 2306, "q": 2307, "\u0930\u091a\u0928\u093e": 2308, "\u2581\u0906\u0927\u0941\u0928\u093f\u0915": 2309, "*": 2310, "Course": 2311, "FrontAccounting": 2312, "\u2581\u0909\u0926\u094d\u0918\u093e\u091f\u094d\u092f": 2313, "\u2581\u0914\u091f\u094d\u092a\u0941\u091f\u094d": 2314, "\u2581\u0935\u0947\u092c\u0938\u093e\u0907\u091f": 2315, "\u2581\u0938\u0902\u0917\u0920\u0928": 2316, "mail": 2317, "\u2581\u0909\u092a\u092f\u0941\u091e\u094d\u091c\u094d\u092e\u0939\u0947": 2318, "\u2581\u092e\u0941\u0916\u0930\u094d\u091c\u0940": 2319, "\u2581\u092c\u094b\u0930\u094d\u0921": 2320, "\u2581\u0936\u094d\u0935\u0947\u0924": 2321, "ack": 2322, "\u2581\u092a\u0943\u0925\u0915\u094d": 2323, "\u2581\u092c\u091f\u0928\u094d": 2324, "\u2581\u0924\u0925\u094d\u092f": 2325, "\u2581\u092a\u094d\u0930\u0938\u094d\u0924\u093e\u0935": 2326, "line": 2327, "\u2581\u0938\u092e\u094d\u092d\u0935": 2328, "\u2581\u0935\u094d\u092f\u093e\u0916\u094d\u092f\u093e": 2329, "\u2581\u092c\u093e\u0917\u093c": 2330, "\u2581\u0905\u0915\u094d\u0937\u0930": 2331, "\u2581\u092c\u0939\u0942\u0928": 2332, "\u2581\u092a\u094d\u0930\u0935\u093f\u0937\u094d\u091f": 2333, "\u2581\u0905\u0928\u0941\u0935\u093e\u0926": 2334, "\u2581\u091c\u0941\u0921\u093c": 2335, "\u2581\u0930\u094b\u091c\u093c": 2336, "\u2581\u092b\u0947\u0930": 2337, "\u0941\u0930\u094d\u0917": 2338, "\u2581\u0915\u0941\u0924\u094b": 2339, "\u093f\u092f\u0930": 2340, "\u092a\u0941\u0930\u0941\u0937": 2341, "\u2581\u0915\u094d\u0935": 2342, "\u2581\u092f\u094b\u0939\u0928": 2343, "\u201c": 2344, "\u093f\u0937\u094d\u092f\u093e\u092e\u093f": 2345, "\u2581\u092e\u094b\u0921": 2346, "\u093e\u092a\u0947\u0915\u094d\u0937": 2347, "\u0915\u0930\u093f\u0937\u094d\u092f": 2348, "\u0935\u0948\u0927": 2349, "\u0926\u0943\u0937\u094d": 2350, "\u2581\u092f\u0941\u0935": 2351, "#": 2352, "erminal": 2353, "\u0969": 2354, "\u2581layer": 2355, "\u2581\u0921\u093f\u0915\u094d\u0932\u0947\u0930\u094d": 2356, "\u2581\u0935\u093e\u0924\u093e\u0935\u0930\u0923": 2357, "\u2581\u0936\u094d\u092e\u0936\u093e\u0928": 2358, "\u2581\u0938\u094d\u091f\u0947\u091f\u094d\u092e\u0947\u0923\u094d\u091f\u094d": 2359, "\u2581Edit": 2360, "\u2581\u091c\u093c\u093e\u0932\u093f\u092e": 2361, "\u2581\u0926\u094d\u0935\u093e\u0926\u0936": 2362, "\u2581\u0907\u0924\u094d\u092f\u0938\u094d\u092f\u093e\u0927\u0903": 2363, "\u0938\u0942\u0915\u094d\u0937\u094d\u092e": 2364, "\u2581\u092a\u0941\u0930\u0938\u094d\u0915\u093e\u0930": 2365, "\u2581\u0938\u0902\u0938\u093e\u0927\u0928": 2366, "\u2581\u092d\u0941\u0917\u0924\u093e": 2367, "\u2581\u0924\u0943\u0924\u0940\u092f": 2368, "\u2581\u091c\u094d\u091e\u093e\u0924\u0935\u0928\u094d\u0924\u0903": 2369, "\u2581\u092e\u0947\u0928\u094d\u092f\u0942": 2370, "\u2581\u0928\u093f\u0930\u094d\u092e\u093e\u0924\u0941": 2371, "\u2581\u092f\u0940\u0936\u094b": 2372, "\u2581\u0917\u0941\u0928\u093e\u0939": 2373, "\u2581\u0938\u094d\u0930\u094b\u0924": 2374, "\u2581\u0936\u092a\u0925": 2375, "\u2581\u0905\u0938\u092b\u0932": 2376, "Com": 2377, "\u2581\u0924\u0941\u0932\u0928\u093e": 2378, "ange": 2379, "\u092a\u094d\u0930\u093e\u0923\u093e\u092f\u093e\u092e": 2380, "\u2581\u0909\u0926\u094d\u092f\u093e\u0928": 2381, "\u2581\u0938\u094d\u0925\u093e\u092a\u092f\u093e\u092e\u093f": 2382, "\u2581\u092b\u093e\u092f\u0926": 2383, "\u2581\u0928\u093e\u091f\u0915": 2384, "elect": 2385, "\u2581\u0938\u0902\u0917\u094d\u0930\u0939": 2386, "\u258115": 2387, "\u2581\u0938\u0930\u094d\u0935\u093e\u0927\u093f\u0915": 2388, "\u2581\u0905\u0930\u092c": 2389, "\u2581\u0924\u0947\u092d\u094d\u092f\u094b": 2390, "\u2581\u0935\u093f\u0928\u092f": 2391, "\u2581\u0909\u092a\u091a\u093e\u0930": 2392, "\u2581\u0939\u091f\u093e": 2393, "\u2581\u0915\u0938\u094d\u092f\u093e\u092a": 2394, "\u2581\u092a\u0919\u094d\u0915\u094d\u0924": 2395, "\u094d\u0932\u093e\u0938": 2396, "\u2581\u0926\u0930\u094d\u0936\u092f": 2397, "\u2581\u0915\u0940\u0932\u0915": 2398, "\u092c\u092f\u093e\u0928": 2399, "\u0917\u094b\u091a\u0930": 2400, "\u258130": 2401, "\u0928\u0941\u0938\u093e\u0930\u0947\u0923": 2402, "\u092f\u0924\u094b\u0939\u093f": 2403, "\u092a\u094d\u0930\u0925\u092e": 2404, "\u0935\u093f\u0936\u094d\u0935\u093e\u0938": 2405, "\u0924\u094d\u092e\u0915": 2406, "\u092a\u094d\u0930\u0915\u093e\u0936": 2407, "\u090f\u0924\u0924\u094d": 2408, "\u0927\u0942\u092e": 2409, "\u0915\u093f\u0902\u0924\u0941": 2410, "\u096f": 2411, "Q": 2412, "\u2581Student": 2413, "\u2581\u092b\u093c\u0948\u0938\u0932\u093e": 2414, "\u2581\u0938\u093f\u0902\u0939\u093e\u0938\u0928": 2415, "ight": 2416, "\u0915\u0941\u0930\u094d\u0935\u094d\u0935\u0928\u094d": 2417, "\u2581\u0935\u093f\u092a\u0930\u0940\u0924": 2418, "\u2581\u092b\u093f\u0932\u094d\u092e": 2419, "\u0938\u0916\u093e\u092f\u0903": 2420, "\u2581\u092a\u094d\u0930\u0938\u093f\u0926\u094d\u0927": 2421, "\u2581\u092c\u094d\u0930\u0939\u094d\u092e": 2422, "\u2581\u0938\u093e\u0939\u093f\u0924\u094d\u092f": 2423, "\u2581\u092a\u094d\u0930\u093e\u092a\u094d\u0928\u0941\u092e\u0903": 2424, "\u2581\u091c\u093e\u0901\u091a": 2425, "\u2581\u0938\u094d\u0924\u0902\u092d": 2426, "\u2581\u0917\u0935\u093e\u0915\u094d\u0937": 2427, "\u2581\u0938\u092e\u093e\u0927\u093e\u0928": 2428, "\u2581\u0928\u093f\u092f\u0902\u0924\u094d\u0930\u0923": 2429, "\u2581\u0926\u0926\u093e\u092e\u093f": 2430, "\u2581\u092a\u094b\u0937\u0915": 2431, "\u2581\u092a\u094d\u0930\u092f\u0924\u094d\u0928": 2432, "\u2581\u091c\u093e\u0928\u0940\u0925": 2433, "\u2581\u092f\u094b\u0937\u093f\u0924": 2434, "\u2581\u0935\u093f\u0936\u093e\u0932": 2435, "\u2581\u0906\u0930\u0902\u092d": 2436, "\u0938\u093e\u0927\u093e\u0930\u0923": 2437, "\u2581\u0936\u093e\u0902\u0924\u093f": 2438, "\u2581\u0905\u0928\u094d\u0924\u093f\u092e": 2439, "\u2581\u091a\u0941\u0928\u0947\u0902": 2440, "\u090a\u0901": 2441, "\u2581\u092a\u094d\u0930\u093e\u092a\u094d\u0924\u0935\u0928\u094d\u0924\u0903": 2442, "\u0928\u094d\u0926\u094d\u0930\u093f\u092f": 2443, "\u0924\u0941\u0932\u094d\u092f": 2444, "\u2581\u0927\u0930\u0924\u0940": 2445, "\u0938\u0939\u0938\u094d\u0930": 2446, "\u092a\u0942\u0930\u094d\u0935\u0924\u0928": 2447, "\u2581\u091c\u093f\u0924\u0928": 2448, "\u2581\u0905\u0938\u094d\u092e\u0926": 2449, "\u0927\u0930\u094d\u092e\u094d\u092e": 2450, "form": 2451, "\u0917\u0943\u0939\u0940\u0924": 2452, "\u2581\u0928\u094c\u0915\u093e": 2453, "\u0935\u094d\u092f\u0935\u0938\u094d\u0925\u093e": 2454, "\u0926\u0942\u0938\u0930\u0947": 2455, "\u0935\u094d\u092f\u0915\u094d\u0924\u093f": 2456, "\u0915\u0941\u091b": 2457, "\u2581\u0925\u094b\u0921": 2458, "\u2581\u0916\u093c\u0941\u0926": 2459, "\u2581\u0930\u093e\u0938\u094d\u0924": 2460, "\u0924\u0926\u0930\u094d\u0925\u092e": 2461, "bject": 2462, "oodle": 2463, "\u092a\u0943\u0925\u094d\u0935\u0940": 2464, "\u094d\u091f\u0935\u0947\u092f\u0930": 2465, "\u2581System": 2466, "\u2581\u0907\u091c\u0930\u093e\u092f\u0932": 2467, "\u2581\u0913\u092c\u094d\u091c\u0947\u0915\u094d\u091f\u094d": 2468, "\u2581\u092a\u0948\u0917\u093c\u092e\u094d\u092c\u0930": 2469, "Z": 2470, "\u2581\u0917\u093e\u0902\u0927\u0940": 2471, "\u2581\u092c\u0943\u0939\u0924\u094d": 2472, "\u2581\u092e\u091c\u092c\u0942\u0924": 2473, "\u2581\u0936\u0940\u0918\u094d\u0930": 2474, "\u0936\u0924\u093e\u092c\u094d\u0926": 2475, "\u2581\u0905\u0927\u0938\u094d\u0924\u0928": 2476, "\u2581\u0907\u0938\u094d\u0930\u093e\u092f\u0947\u0932": 2477, "\u2581\u0909\u0924\u094d\u0924\u0940\u0930\u094d\u0923": 2478, "\u2581\u092a\u0942\u0902\u091c\u0940": 2479, "\u2581\u0936\u094d\u0930\u0947\u0923\u0940": 2480, "\u2581\u0938\u092e\u0943\u0926\u094d\u0927": 2481, "\u2581\u0927\u0948\u0930\u094d\u092f": 2482, "\u2581\u0909\u0926\u094d\u0918\u091f": 2483, "\u2581\u0915\u0943\u0924\u094d\u0938\u094d\u0928": 2484, "\u2581\u0927\u0928\u094d\u092f\u0935\u093e\u0926": 2485, "ign": 2486, "\u2581\u091a\u093e\u0939\u093f\u092f\u0947": 2487, "\u2581\u092e\u093e\u092c\u0942\u0926": 2488, "\u2581\u092a\u094d\u0930\u093e\u092a\u094d\u0938\u094d\u092f": 2489, "\u2581\u092d\u094d\u0930\u093e\u0924\u0943": 2490, "\u0915\u094d\u0936\u0928": 2491, "\u2581\u0915\u094d\u0930\u094b\u0927": 2492, "\u2581\u0917\u091a\u094d\u091b\u0928\u094d\u0924\u0941": 2493, "\u2581\u091c\u094d\u091e\u093e\u0924\u094d\u0935\u093e": 2494, "\u0936\u094d\u091b": 2495, "\u2581\u092f\u094b\u0917\u0926\u093e\u0928": 2496, "\u2581\u091c\u0935\u093e\u092c": 2497, "\u2581\u092a\u094d\u0930\u0947\u0937\u093f\u0924": 2498, "\u2581\u0938\u092a\u094d\u0924\u093e\u0939": 2499, "\u2581\u0917\u0930\u0940\u092c": 2500, "\u2581un": 2501, "\u2581\u0938\u094d\u0935\u0915\u0940\u092f": 2502, "\u2581\u0909\u0928\u094d\u0928\u0924": 2503, "\u2581\u0938\u0941\u0930\u0915\u094d\u0937\u093f\u0924": 2504, "\u2581\u0924\u0939\u0924": 2505, "\u2581\u091a\u0947\u0939\u0930": 2506, "\u2581\u0935\u093f\u0936\u094d\u0930\u093e\u092e\u0935\u093e\u0930": 2507, "\u2581\u0938\u093f\u0938\u094d\u091f\u092e": 2508, "\u2581\u091b\u093f\u092a": 2509, "\u2581\u0917\u094d\u0930\u093e\u0939\u0915": 2510, "\u2581\u0928\u0941\u0924\u094d": 2511, "\u2581\u0915\u093e\u0930\u094d\u092f\u093e\u0932\u092f": 2512, "\u2581\u092a\u0942\u092a": 2513, "pti": 2514, "\u2581\u0917\u0932\u0924": 2515, "\u2581\u092e\u0941\u0926\u094d\u0930\u093e\u092a\u092f": 2516, "\u0938\u094d\u092a\u0947\u0938": 2517, "\u0947\u0928\u094d\u0938\u094d": 2518, "\u2581\u092d\u0935\u0947\u0924": 2519, "\u093f\u0937\u094d\u092f\u0928\u094d\u0924\u0947": 2520, "\u0947\u0937\u094d\u0935": 2521, "\u2581\u092a\u0941\u0930\u093e\u0928": 2522, "\u2581\u092a\u094d\u0930\u093e\u0923\u093f\u0928": 2523, "\u0930\u0941\u0939": 2524, "\u0936\u093f\u0937\u094d\u092f": 2525, "\u2013": 2526, "\u0909\u0928\u094d\u0939\u094b\u0902\u0928\u0947": 2527, "\u0905\u0925\u0935\u093e": 2528, "\u092a\u0930\u093f\u0935\u0930\u094d\u0924\u0928": 2529, "\u092b\u094b\u0928": 2530, "\u0916\u093c\u0941\u0926\u093e": 2531, "\u0936\u0930\u0940\u0930": 2532, "\u091a\u093f\u0915\u093f\u0924\u094d\u0938\u093e": 2533, "\u0905\u0930\u094d\u0925\u093e\u0924": 2534, "\u2581\u0938\u0947\u0935\u094d": 2535, "\u0915\u0930\u094d\u0937\u0923": 2536, "\u0915\u0941\u0930\u0941\u0924": 2537, "\u0936\u094d\u0935\u093e\u0938": 2538, "\u092f\u093e\u092e\u093e\u0938\u0941\u0903": 2539, "\u0936\u0948\u0932": 2540, "\u096d": 2541, "\u096e": 2542, "\u2581IDE": 2543, "\u2581class": 2544, "\u2581number": 2545, "\u2581\u0907\u092c\u094d\u0930\u093e\u0939\u0940\u092e": 2546, "\u2581\u0914\u0926\u094d\u092f\u094b\u0917": 2547, "\u2581\u0917\u094d\u0930\u093e\u092e\u0940\u0923": 2548, "\u2581\u0926\u0942\u0938\u0930\u093e": 2549, "\u2581\u0928\u0947\u091f\u0935\u0930\u094d\u0915": 2550, "\u2581\u0935\u093e\u0930\u094d\u0937\u093f\u0915": 2551, "\u2581\u0938\u0902\u0926\u0930\u094d\u092d": 2552, "\u0915\u0928\u094d\u0938\u094d\u091f\u094d\u0930\u0915\u094d\u091f\u0930\u094d": 2553, "\u0938\u093e\u092e\u094d\u092a\u094d\u0930\u0924\u0902": 2554, "\u2581main": 2555, "\u2581\u0928\u093f\u0937\u094d\u0915\u094d\u0930\u093f\u092f": 2556, "\u2581\u092b\u093f\u0930\u0942\u0936\u093f\u0928": 2557, "\u2581\u0936\u093e\u0930\u0940\u0930\u093f\u0915": 2558, "\u2581file": 2559, "\u092c\u094d\u0932\u094b\u0915\u094d": 2560, "\u2581\u0938\u0902\u0918\u0930\u094d\u0937": 2561, "count": 2562, "\u2581\u0928\u093f\u092f\u0928\u094d\u0924\u094d\u0930": 2563, "\u2581\u0938\u092e\u0941\u0926\u093e\u092f": 2564, "\u2581\u0930\u093e\u091c\u0928\u0940\u0924\u093f": 2565, "\u0909\u0928\u094d\u0939\u0940\u0902": 2566, "\u2581\u0915\u0924\u093f\u092a\u092f": 2567, "\u2581\u092a\u094d\u0930\u092c\u0902\u0927": 2568, "\u00a4\u0082": 2569, "\u2581\u092e\u093e\u0928\u0941\u0937": 2570, "\u2581\u0906\u0930\u092e\u094d\u092d": 2571, "\u2581\u092f\u091a\u094d\u091b\u0924\u093f": 2572, "\u2581\u0939\u093f\u0928\u094d\u0926\u0940": 2573, "\u2581\u091c\u0917\u0924\u094b": 2574, "tart": 2575, "\u2581\u0935\u093f\u0932\u094b\u0915\u094d\u092f": 2576, "\u092e\u093e\u0938\u0940\u0924\u094d": 2577, "\u0940\u0915\u0930\u094b\u0924\u093f": 2578, "\u093e\u0927\u094d\u092f\u093e\u092f": 2579, "\u2581\u0905\u0932\u093e\u0935\u093e": 2580, "\u2581\u0930\u093f\u092a\u094b\u0930\u094d\u091f": 2581, "\u2581\u0938\u0932\u093e\u0939": 2582, "\u2581\u0915\u0930\u094d\u0924\u0935\u094d\u092f": 2583, "\u0935\u0938\u094d\u0924\u0942\u0928": 2584, "\u2581\u0909\u0926\u094d\u092f\u092e": 2585, "\u092e\u0923\u094d\u0921\u0932": 2586, "\u2581\u0905\u0915\u094d\u0937\u092e": 2587, "\u2581\u0924\u093e\u0930\u0940\u0916": 2588, "\u2581\u0905\u092a\u0930\u093e\u0927": 2589, "ance": 2590, "\u2581\u092c\u093f\u091c\u0932": 2591, "\u2581\u0936\u094b\u0927": 2592, "\u2581\u0936\u094d\u0932\u094b\u0915": 2593, "\u0915\u0941\u0930\u094d\u092e": 2594, "\u2581\u0938\u0926\u0928": 2595, "\u0915\u093e\u0930\u094d\u092c\u0928": 2596, "\u2581\u0917\u0930\u094d\u092d": 2597, "\u0906\u0926\u094c": 2598, "\u092a\u094b\u0937\u0923": 2599, "\u2581\u092b\u094d\u0932": 2600, "\u092a\u093e\u0920\u0947\u093d\u0938\u094d\u092e\u093f\u0928": 2601, "\u2581\u0915\u0928\u0947\u0915\u094d": 2602, "\u2581\u092d\u0935\u093f\u0937\u094d\u092f\u0926\u094d\u0935\u093e\u0926\u093f": 2603, "\u2581\u092a\u093e\u0930\u094d\u0936\u094d\u0935\u0947": 2604, "\u0917\u0924\u093f\u0935\u093f\u0927\u093f": 2605, "\u0917\u0924\u0935\u0928\u094d\u0924\u0903": 2606, "\u2581\u0938\u0949\u092b": 2607, "\u0907\u0938\u0932\u093f\u090f": 2608, "\u0907\u0924\u094d\u092f\u0938\u094d\u092f": 2609, "\u0932\u094b\u0917\u094b\u0902": 2610, "\u0915\u0930\u094d\u0924\u0941\u0902": 2611, "\u0924\u094d\u092f\u093e\u0917": 2612, "\u0935\u092f\u092e\u0924\u094d\u0930": 2613, "\u2581\u092a\u0943\u091a\u094d\u091b": 2614, "\u0947\u093d\u0938\u094d\u092e\u093f\u0928\u094d": 2615, "poken": 2616, "\u2581\u0906\u0915\u0930\u094d\u0937": 2617, "\u2581\u091c\u0930\u0942\u0930": 2618, "\u2581\u092a\u0936\u094d\u091a\u093e\u0926\u094d": 2619, "[": 2620, "\u2581\u0915\u0923\u094d\u0921\u0940\u0936\u0928\u094d": 2621, "\u2581\u0915\u092e\u093e\u0923\u094d\u0921\u094d": 2622, "\u2581\u0915\u094c\u0936\u0932": 2623, "\u2581\u092a\u0943\u0925\u093f\u0935\u094d\u092f\u093e": 2624, "\u2581\u092c\u0916\u094d\u0936": 2625, "\u2581\u0938\u093e\u092e\u0930\u094d\u0925\u094d\u092f": 2626, "\u2581\u0938\u093e\u0939\u093e\u092f\u094d\u092f": 2627, "ound": 2628, "\u090f\u0921\u093f\u091f\u0930\u094d": 2629, "\u0915\u094d\u0935\u0947\u0928\u094d\u0938\u094d": 2630, "\u2581\u0921\u0948\u0932\u093e\u0917\u094d": 2631, "\u2581\u092e\u093f\u091f\u093e\u090f\u0901": 2632, "\u2581\u0905\u0924\u094d\u092f\u093e\u091a\u093e\u0930": 2633, "\u2581\u0906\u0935\u0947\u0926\u0928": 2634, "\u2581\u0917\u0941\u092e\u0930\u093e\u0939": 2635, "\u2581\u0909\u092a\u092c\u0902\u0927": 2636, "\u2581\u0928\u093e\u0917\u0930\u093f\u0915": 2637, "\u2581\u092e\u0936\u0940\u0928": 2638, "2018": 2639, "txt": 2640, "\u2581\u092b\u093c\u0948\u0932\u094d": 2641, "\u2581http": 2642, "port": 2643, "\u2581\u092a\u094d\u0930\u094b\u0924\u094d\u0938\u093e\u0939\u0928": 2644, "\u2581\u0928\u092e\u094d\u0930\u0924\u093e": 2645, "\u2581\u0915\u0932\u094d\u092a\u0928\u093e": 2646, "\u2581\u0938\u0902\u0938\u094d\u0915\u0930\u0923": 2647, "\u2581\u092a\u0926\u094d\u0927\u0924\u093f": 2648, "\u2581\u0936\u093f\u0916\u0930": 2649, "\u2581\u090f\u0936\u093f\u092f\u093e": 2650, "New": 2651, "\u2581\u0928\u094b\u0926\u0928": 2652, "\u2581\u0936\u0942\u0928\u094d\u092f": 2653, "\u092a\u0936\u094d\u091a\u093e\u0926\u094d\u0935\u092f\u0902": 2654, "\u2581\u092e\u0942\u0924\u094d\u0930": 2655, "\u2581\u091c\u0917\u093e\u0926": 2656, "\u2581\u0915\u0936\u094d\u091a\u093f\u0926": 2657, "\u2581\u092d\u0935\u093f\u0924\u0935\u094d\u092f": 2658, "\u2581\u0938\u0941\u0902\u0926\u0930": 2659, "\u2581\u092a\u0941\u0930\u093e\u0924\u0928": 2660, "\u2581\u0935\u093e\u092f\u0926\u093e": 2661, "\u2581\u0914\u0937\u0927": 2662, "\u2581\u0928\u093f\u0930\u094d\u092f\u093e\u0924": 2663, "\u2581\u0915\u094d\u0930\u0941\u0936\u0947": 2664, "\u2581\u092e\u093e\u0901\u0917": 2665, "\u2581\u0938\u094d\u0935\u091a\u094d\u091b\u0924\u093e": 2666, "\u0915\u093c\u092f\u093e\u092e\u0924": 2667, "\u2581\u0938\u0940\u0927\u0947": 2668, "\u2581\u0918\u0930\u0947\u0932": 2669, "\u2581\u0935\u093f\u0916\u094d\u092f\u093e\u0924": 2670, "\u2581\u0928\u093f\u0930\u094d\u092d\u0930": 2671, "\u093e\u0924\u094d\u092e\u0928\u093e": 2672, "\u092d\u093f\u092a\u094d\u0930\u093e\u092f": 2673, "\u2581\u0928\u093f\u0930\u0942\u092a\u093f\u0924": 2674, "\u2581\u091c\u0917\u0926": 2675, "\u0938\u0930\u094d\u0917": 2676, "\u0915\u094b\u0932\u0928\u094d": 2677, "\u2581\u0938\u094d\u0925\u093e\u092a\u092f\u0947\u0924": 2678, "\u2581\u0935\u093f\u091c\u092f": 2679, "\u0938\u0902\u0935\u0947\u0926": 2680, "\u0938\u0942\u0938": 2681, "\u258180": 2682, "\u2581\u0905\u0938\u094d\u092e\u093e\u0915\u092e": 2683, "\u092e\u0902\u0921\u0932": 2684, "ome": 2685, "\u2581\u0916\u093c\u093e\u0938": 2686, "\u2581\u092a\u0939\u0928": 2687, "\u0930\u0915\u094d\u0937\u093f\u0924": 2688, "\u2581\u092f\u0940\u0936\u0941\u0916\u094d\u0930\u0940\u0937\u094d\u091f": 2689, "\u092e\u0927\u094d\u092f": 2690, "\u092d\u094b\u0917": 2691, "\u092c\u0941\u0932": 2692, "\u093f\u0937\u094d\u092f\u0925": 2693, "\u0938\u094d\u0925\u093e\u092a\u092f": 2694, "\u0926\u094d\u0935\u093f\u0924\u0940\u092f": 2695, "\u0928\u093f\u0936\u094d\u091a\u092f": 2696, "\u092a\u0919\u094d\u0915\u094d\u0924\u093f": 2697, "\u092a\u0942\u091c\u094d\u092f": 2698, "top": 2699, "rom": 2700, "\u0938\u094d\u0925\u093e\u092a\u0928\u093e": 2701, "\u2581\u0915\u0941\u0930\u094d\u0935\u0928\u094d": 2702, "Ctrl": 2703, "block": 2704, "\u0935\u093e\u091e\u094d\u091b": 2705, "\u2581\u0909\u0924\u094d\u0915\u0943\u0937\u094d\u091f": 2706, "\u2581\u092e\u0939\u0924\u094d\u0924\u094d\u0935\u092a\u0942\u0930\u094d\u0923": 2707, "\u2581\u0968\u0966\u0966": 2708, "XAMPP": 2709, "\u0915\u0936\u094d\u092e\u0940\u0930": 2710, "\u2581method": 2711, "\u2581password": 2712, "\u2581\u0907\u0924\u094d\u092f\u093e\u0916\u094d\u092f": 2713, "\u2581\u091c\u0939\u0928\u094d\u0928\u0941\u092e": 2714, "\u2581\u092a\u093f\u091b\u0932\u0947": 2715, "\u2581\u0939\u0938\u094d\u0924\u093e\u0915\u094d\u0937\u0930": 2716, "\u2581\u0906\u0935\u0943\u0924\u094d\u0924\u093f\u0903": 2717, "\u092c\u094d\u0930\u094c\u0938\u0930\u094d": 2718, "\u2581\u0917\u0941\u091c\u0930\u093e\u0924": 2719, "\u2581\u092e\u0938\u094d\u0924\u093f\u0937\u094d\u0915": 2720, "\u0939\u093e\u0932\u093e\u0902\u0915\u093f": 2721, "\u2581\u0926\u0942\u0938\u0930\u094b": 2722, "\u2581\u0926\u0943\u0937\u094d\u091f\u093f\u0915\u094b\u0923": 2723, "\u2581\u0938\u093e\u0935\u0927\u093e\u0928": 2724, "\u2581\u091d\u0942\u0920": 2725, "\u2581\u0967\u096f": 2726, "\u2581\u0905\u0935\u0936\u093f\u0937\u094d\u091f": 2727, "\u2581\u091f\u0942\u0932\u094d": 2728, "\u2581\u0935\u093f\u0938\u094d\u0924\u0943\u0924": 2729, "\u2581\u0926\u0940\u0930\u094d\u0918": 2730, "\u2581\u0915\u093e\u0930\u094d\u092f\u0936\u093e\u0932\u093e": 2731, "\u2581\u0909\u0924\u094d\u0925\u093e\u092f": 2732, "\u2581\u0928\u093f\u0930\u0928\u094d\u0924\u0930": 2733, "\u2581\u091c\u092e\u0940\u0928": 2734, "\u2581\u092f\u0942\u0930\u094b\u092a": 2735, "\u2581\u0936\u093f\u092e\u094b\u0928": 2736, "\u2581\u091c\u093c\u093f\u0928\u094d\u0926": 2737, "\u0924\u094d\u092a\u0924\u094d\u0924\u093f": 2738, "://": 2739, "\u2581\u0938\u0942\u091a\u092f\u0924\u093f": 2740, "\u2581\u0905\u0917\u094d\u0928\u093f": 2741, "\u0936\u0941\u0932\u094d\u0915": 2742, "\u2581\u0938\u094d\u0928\u0947\u0939": 2743, "\u2581\u0915\u094d\u0930\u0940\u0923": 2744, "\u2581\u091c\u093e\u090f\u0902\u0917\u0947": 2745, "\u2581\u0932\u0947\u092f\u0930\u094d": 2746, "\u2581\u0915\u094b\u0936\u093f\u0915\u093e": 2747, "\u0938\u094d\u092e\u0943\u0924\u093f": 2748, "\u2581\u0938\u092e\u094d\u092e\u093e\u0928": 2749, "\u0928\u094d\u0924\u0930\u094d\u0917\u0924": 2750, "\u0915\u0947\u0902\u0926\u094d\u0930\u0940\u092f": 2751, "ase": 2752, "\u0926\u094b\u0932\u0928": 2753, "\u0924\u0938\u094d\u092e\u093e\u0926": 2754, "\u0926\u0926\u094c": 2755, "\u2581\u092a\u0924\u094d\u0928": 2756, "\u0909\u0926\u093e\u0939\u0930\u0923\u093e\u0930\u094d\u0925\u0902": 2757, "\u092c\u0941\u0926\u094d\u0927": 2758, "\u092e\u093e\u0927\u094d\u092f\u092e\u0947\u0928": 2759, "\u2581\u092a\u0942\u091c": 2760, "\u2581\u091a\u093f\u0915\u093f\u0924\u094d\u0938": 2761, "\u0947\u093d\u0939": 2762, "\u092a\u0943\u0937\u094d\u0920": 2763, "\u2581\u092a\u094d\u0930\u0924\u0940\u0915": 2764, "\u0924\u0930\u094d\u0939\u093f": 2765, "\u094d\u092f\u0927\u093f\u0915": 2766, "\u2581\u0936\u0915\u094d\u0928\u0941\u092e": 2767, "qua": 2768, "\u2581\u092a\u094d\u0930\u0947\u0937\u092f": 2769, "\u092f\u094b\u092a\u0948\u0925": 2770, "=": 2771, "\\": 2772, "{": 2773, "\u0941\u092a\u092f\u0941\u091c\u094d\u092f": 2774, "\u2581Tutorial": 2775, "\u2581item": 2776, "\u2581\u0907\u092c\u093e\u0926\u0924": 2777, "\u2581\u090f\u0915\u094d\u0932\u093f\u092a\u094d\u0938": 2778, "\u2581\u0915\u093e\u0902\u0917\u094d\u0930\u0947\u0938": 2779, "\u2581\u091c\u093e\u0917\u0930\u0942\u0915": 2780, "\u2581\u092a\u094d\u0930\u0927\u093e\u0928\u092f\u093e\u091c\u0915\u093e": 2781, "\u2581\u092b\u093c\u0940\u0932\u094d\u0921\u094d": 2782, "\u2581\u092f\u0941\u0937\u094d\u092e\u092d\u094d\u092f": 2783, "\u2581\u0938\u094d\u0915\u094d\u0930\u094b\u0932\u094d": 2784, "\u0907\u0932\u0947\u0915\u094d\u091f\u094d\u0930": 2785, "\u2581Type": 2786, "\u2581\u0927\u093e\u0930\u094d\u092e\u093f\u0915": 2787, "\u2581\u0938\u092e\u094d\u092e\u0947\u0932\u0928": 2788, "\u0933": 2789, "\u2581\u0909\u092a\u092f\u094b\u0915\u094d\u0924\u093e": 2790, "\u2581\u0915\u0943\u0937\u0915": 2791, "\u2581\u0932\u094b\u0915\u0924\u0902\u0924\u094d\u0930": 2792, "\u2581\u092a\u094d\u0930\u093e\u092a\u094d\u0928\u0941\u0935\u0928\u094d\u0924\u093f": 2793, "\u2581\u0935\u0943\u0924\u094d\u0924\u093e\u0928\u094d\u0924": 2794, "\u2581\u0905\u0928\u0941\u092a\u094d\u0930\u092f\u094b\u0917": 2795, "\u092e\u0941\u0938\u094d\u0932\u093f\u092e": 2796, "\u2581User": 2797, "\u2581\u0936\u094d\u0930\u0926\u094d\u0927\u093e": 2798, "\u2581\u091c\u093e\u0928\u0940\u092e\u0903": 2799, "this": 2800, "\u2581\u092a\u094d\u0930\u0935\u093f\u0936\u094d\u092f": 2801, "\u2581\u091c\u094d\u092f\u094b\u0924\u093f": 2802, "\u2581\u0938\u094d\u091f\u094d\u0930\u093f\u0919\u094d\u0917\u094d": 2803, "\u0921\u094d\u0930\u093e\u092a\u094d": 2804, ">>": 2805, "\u2581\u0917\u093f\u0930\u094b\u0939": 2806, "Demo": 2807, "\u2581\u0938\u0902\u092d\u093e\u0935\u0928\u093e": 2808, "\u2581\u0905\u0924\u094d\u092f\u0927\u093f\u0915": 2809, "\u2581\u092a\u094d\u0930\u0947\u0930\u0923\u093e": 2810, "\u2581\u0938\u0902\u0915\u0932\u094d\u092a": 2811, "\u0936\u0941\u0937\u094d\u0915": 2812, "\u2581\u092e\u0948\u0924\u094d\u0930\u0940": 2813, "\u2581\u0928\u093f\u0936\u093e\u0928\u093f\u092f": 2814, "\u2581\u0938\u0943\u091c\u0928": 2815, "\u2581\u092a\u094d\u0930\u0926\u0930\u094d\u0936\u093f\u0924": 2816, "\u2581\u0924\u094d\u092f\u093e\u091c\u092f": 2817, "\u2581\u0915\u092e\u094d\u092a\u0928\u0940": 2818, "\u2581\u092c\u094d\u092f\u093e\u091c": 2819, "\u2581\u0916\u0930\u094d\u091a": 2820, "\u2581\u0926\u0943\u0937\u094d\u091f\u093e\u0928\u094d\u0924": 2821, "\u2581\u0932\u092a\u094d\u0938\u094d\u092f": 2822, "\u2581\u0906\u0917\u091a\u094d\u091b\u093e\u092e": 2823, "\u094b\u0924\u094d\u0938\u0935": 2824, "\u2581\u0916\u0941\u0936": 2825, "\u2581\u0935\u094d\u0930\u091c": 2826, "\u2581\u0916\u0942\u092c": 2827, "\u2581\u092c\u0941\u0926\u094d\u0927\u093f": 2828, "\u2581\u0935\u094d\u092f\u093e\u092a\u0915": 2829, "The": 2830, "\u2581\u0938\u0941\u0928\u094d\u0926\u0930": 2831, "\u092a\u0947\u091c\u094d": 2832, "\u2581\u0938\u094d\u0935\u093e\u092e\u0940": 2833, "\u092c\u093e\u0915\u094d\u0938\u094d": 2834, "\u2581\u092e\u0939\u0940\u0928\u0947": 2835, "\u0928\u093f\u0935\u093e\u0938\u093f\u0928": 2836, "\u2581\u091c\u093c\u0941\u0932": 2837, "\u2581\u092b\u0930\u092e\u093e": 2838, "\u2581\u092a\u094d\u0930\u0917\u0924\u093f": 2839, "\u0938\u092e\u093e\u0930\u094b\u0939": 2840, "\u2581\u091c\u0902\u0917\u0932": 2841, "\u0938\u092e\u094d\u092a\u0930\u094d\u0915": 2842, "\u091c\u094d\u091e\u093e\u092f\u0924": 2843, "\u0947\u0937\u093e\u091e\u094d\u091a": 2844, "\u0926\u093f\u0928\u093e\u0919\u094d\u0915": 2845, "\u2581\u0915\u0930\u0928\u0947\u0935\u093e\u0932\u094b": 2846, "\u2581\u092e\u094b\u091a\u092f": 2847, "\u2581\u092a\u094d\u0930\u0935\u0943\u0924\u094d\u0924\u093f": 2848, "\u2581\u0938\u094d\u0915\u0940\u092e": 2849, "\u0915\u0941\u0936\u0932": 2850, "cli": 2851, "\u0938\u091c\u0926\u093e": 2852, "\u092a\u0930\u093e\u0915\u094d\u0930\u092e": 2853, "\u0935\u093e\u0923\u0940": 2854, "\u092a\u0915\u094d\u0935": 2855, "\u0928\u0941\u092a\u093e\u0924": 2856, "\u2581\u0905\u0902\u0924\u0930\u094d\u0917": 2857, "\u2581\u0917\u093e\u0922": 2858, "\u0932\u093f\u0916\u093f\u0924": 2859, "\u0926\u0941\u0928\u093f\u092f\u093e": 2860, "\u0926\u0915\u094d\u0937\u093f\u0923": 2861, "\u092d\u094b\u091c\u0928": 2862, "\u0905\u091a\u094d\u091b\u093e": 2863, "\u0915\u093e\u0930\u0923\u093e\u0924\u094d": 2864, "\u2581\u092a\u0930\u093f\u0924\u094d\u0930\u093e\u0923": 2865, "\u2581\u0938\u094d\u0935\u093e\u0917\u0924": 2866, "\u2581\u0938\u092e\u094d\u092f\u0915": 2867, "\u092a\u0943\u0925\u0915": 2868, "\u2581\u0909\u092e\u094d\u092e\u0940\u0926": 2869, "\u2581\u092a\u0930\u094d\u092f\u093e\u0935\u0930\u0923": 2870, "\u2581\u0938\u0902\u0935\u093e\u0926\u092a\u0947\u091f\u093f\u0915\u093e": 2871, "$": 2872, "struct": 2873, "}": 2874, "\u096c": 2875, "\u2581Account": 2876, "\u2581type": 2877, "\u2581username": 2878, "\u2581\u0906\u092a\u0930\u0947\u091f\u0930\u094d": 2879, "\u2581\u0909\u0926\u094d\u0918\u093e\u091f\u0928": 2880, "\u2581\u0928\u093f\u092e\u094d\u0928\u0932\u093f\u0916\u093f\u0924": 2881, "\u2581\u092a\u0930\u094d\u092f\u093e\u092a\u094d\u0924": 2882, "\u2581\u092a\u094d\u0930\u093e\u0925\u092e\u093f\u0915": 2883, "\u2581\u092b\u093f\u0932\u093f\u092a": 2884, "\u2581\u092b\u094b\u0932\u094d\u0921\u0930": 2885, "\u2581\u0938\u093e\u0930\u094d\u0935\u091c\u0928\u093f\u0915": 2886, "\u2581\u0905\u0927\u094d\u092f\u0915\u094d\u0937": 2887, "\u2581\u0907\u0902\u091f\u0930\u0928\u0947": 2888, "\u2581\u0928\u0938\u0940\u0939\u0924": 2889, "\u2581\u092e\u0942\u0932\u094d\u092f\u093e\u0902\u0915\u0928": 2890, "\u092e\u0942\u0921\u0932\u094d": 2891, "\u2581\u0928\u092e\u0938\u094d\u0915\u093e\u0930": 2892, "\u2581\u0935\u094d\u092f\u093e\u0932\u094d\u092f\u0942": 2893, "\u2581\u0926\u0948\u0928\u093f\u0915": 2894, "\u2581\u0909\u0924\u094d\u0925\u093e\u092a": 2895, "\u2581\u0916\u093c\u0942\u092c": 2896, "\u2581\u091f\u0948\u092a\u094d": 2897, "\u2581\u0907\u0928\u094d\u092a\u0941\u091f\u094d": 2898, "\u2581\u092a\u094d\u0930\u0936\u0902\u0938\u093e": 2899, "\u2581\u0928\u093f\u0930\u094d\u0927\u093e\u0930\u0923": 2900, "\u2581\u0916\u0940\u0902\u091a": 2901, "\u2581\u091b\u094b\u0921": 2902, "\u2581\u0915\u0930\u0947\u0917\u0947\u0902": 2903, "\u0915\u094d\u0937\u0941\u0926\u094d\u0930": 2904, "\u0917\u093c\u0930\u091c\u093c": 2905, "\u2581\u0907\u0924\u094d\u092f\u0941\u0915\u094d\u0924\u0947": 2906, "\u2581\u0905\u0938\u094d\u092e\u092d\u094d\u092f": 2907, "\u092e\u0930\u093f\u092f\u092e\u094d": 2908, "\u092c\u091c\u0947\u091f\u094d": 2909, "\u2581home": 2910, "\u2581\u0935\u093e\u0915\u093c\u093f\u092b": 2911, "\u091e\u094d\u091a\u093f\u0926\u092a\u093f": 2912, "\u2581\u0922\u0942\u0902\u0922": 2913, "\u2581\u0915\u094d\u0932\u0947\u0936": 2914, "\u2581\u0905\u0928\u0941\u0938\u0930\u0923": 2915, "\u2581\u0938\u094d\u0924\u092e\u094d\u092d": 2916, "\u2581\u092a\u0921\u093c\u0947\u0917\u093e": 2917, "\u2581\u0907\u0924\u094d\u092f\u0928\u092f\u094b": 2918, "\u2581\u0935\u094d\u092f\u0935\u0938\u093e\u092f": 2919, "\u2581\u092d\u0935\u0947\u092f\u0941": 2920, "\u2581\u0938\u0919\u094d\u0917\u0923\u0915": 2921, "\u2581\u0915\u092e\u093e\u0902\u0921": 2922, "ract": 2923, "\u2581\u0916\u0930\u093e\u092c": 2924, "\u2581\u0938\u0941\u092c\u0939": 2925, "\u2581\u0926\u093e\u092f\u0942\u0926": 2926, "\u2581\u0915\u094b\u0936\u093f\u0936": 2927, "\u2581\u0936\u0916\u093c\u094d": 2928, "\u2581\u092e\u0941\u0926\u094d\u0926": 2929, "\u2581tab": 2930, "\u2581\u092f\u0924\u0938\u094d\u0924\u0947": 2931, "\u2581\u0938\u0902\u0938\u0942\u091a\u0915": 2932, "\u094b\u0924\u094d\u0938\u093e\u0939": 2933, "\u2581\u092a\u0902\u0915\u094d\u0924\u093f": 2934, "\u2581\u0928\u093f\u0917\u092e": 2935, "\u0928\u093f\u092f\u0902\u0924\u094d\u0930": 2936, "\u0932\u0949\u0917": 2937, "\u2581\u091a\u0941\u0928\u094c\u0924": 2938, "\u2581\u0909\u0924\u094d\u0938\u0935": 2939, "\u0941\u0935\u093e\u091a": 2940, "\u2581\u0938\u0902\u0917\u092e": 2941, "\u2581\u0938\u0940\u092e\u093f\u0924": 2942, "\u092a\u094d\u0930\u092c\u0928\u094d\u0927\u0928": 2943, "\u2581\u0928\u093f\u092a\u091f": 2944, "\u0926\u094d\u0926\u093f\u0936\u094d\u092f": 2945, "\u092a\u0940\u0921\u093f\u0924": 2946, "\u091c\u0917\u0924\u0903": 2947, "\u2581\u0928\u093f\u0930\u093e\u0936": 2948, "\u092a\u0942\u0930\u094d\u0935\u094d\u0935\u092a\u0941\u0930\u0941\u0937": 2949, "\u2581\u092f\u094b\u091c\u093f\u0924": 2950, "\u0932\u0948\u0902\u0921": 2951, "\u092a\u0919\u094d\u0915\u094d\u0924\u094c": 2952, "\u2581\u0938\u094d\u0925\u093e\u092a\u092f\u093f\u0924\u0941": 2953, "\u0905\u0928\u094d\u0924\u0924\u0903": 2954, "\u0935\u093f\u0935\u0930\u0923": 2955, "\u092e\u0928\u0941\u0937\u094d\u092f": 2956, "\u2581\u0905\u0935\u0917\u091a\u094d\u091b": 2957, "\u092a\u094d\u0930\u093e\u0928\u094d\u0924": 2958, "\u2581\u092a\u094d\u0930\u093e\u0915\u094d": 2959, "rop": 2960, "\u0938\u0919\u094d\u0917\u093f\u0928": 2961, "\u0930\u093f\u0936\u094d\u0924\u0947": 2962, "\u0926\u094d\u0930\u0937\u094d\u091f\u0941": 2963, "............": 2964, ">": 2965, "\u00c9": 2966, "\u2581Admin": 2967, "loop": 2968, "\u0924\u094d\u0935\u0915\u094d\u091b\u0947\u0926": 2969, "\u096b": 2970, "\u2581grad": 2971, "\u2581\u0905\u0928\u094d\u0924\u0930\u094d\u091c\u093e\u0932": 2972, "\u2581\u0913\u092a\u0930\u0947\u091f\u0930\u094d": 2973, "\u2581\u092b\u093c\u0919\u094d\u0915\u094d\u0937\u0928\u094d": 2974, "Firefox": 2975, "ample": 2976, "isplay": 2977, "java": 2978, "public": 2979, "\u2581Librar": 2980, "\u2581Unit": 2981, "\u2581open": 2982, "\u2581\u0906\u0924\u0902\u0915\u0935\u093e\u0926": 2983, "\u2581\u0909\u0928\u094d\u0939\u094b\u0928\u0947": 2984, "\u2581\u092a\u0930\u0939\u0947\u091c\u093c\u0917\u093e\u0930": 2985, "\u2581\u092d\u0917\u093f\u0928\u0940": 2986, "\u2581\u092e\u093e\u0902\u0938\u092a\u0947\u0936": 2987, "\u2581\u092e\u0947\u0939\u0930\u092c\u093e\u0928": 2988, "\u2581\u0935\u093f\u0926\u094d\u092f\u093e\u0930\u094d\u0925\u093f\u092f\u094b\u0902": 2989, "\u2581\u0938\u0902\u0932\u0917\u094d\u0928": 2990, "\u2581\u0938\u092e\u094d\u092e\u093f\u0932\u093f\u0924": 2991, "\u2581\u0938\u093e\u0902\u0938\u094d\u0915\u0943\u0924\u093f\u0915": 2992, "\u2581\u0938\u094d\u0915\u094d\u0930\u093f\u092a\u094d\u091f": 2993, "\u2581\u0938\u094d\u0935\u091a\u093e\u0932\u093f\u0924": 2994, "\u2581\u0924\u092e\u093f\u0932\u0928\u093e\u0921": 2995, "\u2581\u0935\u093f\u0926\u094d\u092f\u0941\u0924": 2996, "\u2581\u091c\u094d\u091e\u093e\u092a\u0928": 2997, "\u2581\u0926\u0926\u094d\u092e\u0903": 2998, "TeX": 2999, "\u0915\u092e\u094d\u092a\u0948\u0932\u094d": 3000, "\u2581\u0926\u0941\u0917\u094d\u0927": 3001, "fig": 3002, "\u2581\u092a\u093e\u0920\u094d\u092f\u0915\u094d\u0930\u092e": 3003, "\u2581\u0936\u0941\u0930\u0941": 3004, "\u2581\u092f\u0928\u094d\u0924\u094d\u0930\u0947": 3005, "\u2581\u0928\u093f\u0915\u094d\u0937\u093f\u092a": 3006, "\u2581\u0938\u092e\u094d\u092f\u0917\u094d": 3007, "ask": 3008, "\u2581\u0905\u0924\u093f\u0924\u0930\u093e": 3009, "\u2581\u0915\u0940\u0935\u0930\u094d\u0921\u094d": 3010, "\u2581\u0905\u0928\u0941\u0915\u0942\u0932": 3011, "\u2581\u0909\u091a\u094d\u092f\u0924\u0947": 3012, "\u2581\u092d\u093e\u0917\u0940\u0926\u093e\u0930": 3013, "pdf": 3014, "\u2581\u0932\u0942\u092a\u094d": 3015, "\u2581\u0915\u0943\u092a\u093e": 3016, "\u093e\u0936\u094d\u091a\u0930\u094d\u092f\u094d\u092f": 3017, "\u2581\u092c\u093f\u0915\u094d\u0930\u0940": 3018, "\u2581\u0938\u0924\u094d\u092f\u093e\u092a\u0928": 3019, "\u2581\u0930\u0948\u091f\u094d": 3020, "\u2581\u0938\u094d\u0935\u092f\u092e\u0947\u0935": 3021, "\u2581\u0906\u0939\u0942\u092f": 3022, "\u2581\u0938\u092e\u094d\u092d\u0942\u092f": 3023, "\u2581\u0926\u094c\u0921\u093c": 3024, "\u2581\u092a\u0938\u0902\u0926": 3025, "\u2581\u0905\u0916\u093f\u0932": 3026, "\u0928\u0948\u0924\u093f\u0915": 3027, "\u2581\u0921\u093e\u091f\u093e": 3028, "\u092f\u0942\u0937\u092b": 3029, "\u2581\u092d\u0915\u094d\u0937\u094d\u092f": 3030, "\u2581\u0915\u0930\u0941\u0923\u093e": 3031, "\u2581\u092e\u093f\u0938\u094d\u0930": 3032, "\u2581\u092a\u0940\u0932\u093e\u0924": 3033, "\u2581\u092e\u091b\u0932": 3034, "\u0935\u093f\u092d\u0915\u094d\u0924": 3035, "\u0916\u094d\u0935\u093e\u0939": 3036, "\u2581\u0916\u0941\u0932\u094d\u0932": 3037, "aria": 3038, "\u093e\u0909\u0902\u0921": 3039, "\u092b\u093e\u0930\u094d\u092e": 3040, "\u093c\u094c\u0930": 3041, "\u2581\u0926\u0930\u094d\u0936\u092f\u093f\u0924\u0941": 3042, "\u092a\u0930\u093f\u092e\u093f\u0924": 3043, "\u2581\u0915\u0925\u092f\u093f\u0924\u0941": 3044, "\u092e\u0941\u0938\u0932\u092e\u093e\u0928\u094b\u0902": 3045, "\u092a\u0930\u093f\u0923\u093e\u092e": 3046, "\u0930\u093e\u0937\u094d\u091f\u094d\u0930\u092a\u0924\u093f": 3047, "\u0938\u094d\u092e\u0926\u0940\u092f\u093e": 3048, "\u0926\u094b\u0939\u0930\u093e": 3049, "\u0926\u0943\u0922\u0940\u0915": 3050, "\u2581\u092a\u094d\u0930\u093e\u092a\u094d\u0928\u0941": 3051, "Servlet": 3052, "demo": 3053, "\u0939\u093e\u0932\u093e\u0901\u0915\u093f": 3054, "\u094b\u0932\u094d\u092f\u0942\u0936\u0928": 3055, "\u2014": 3056, "\u2581Setting": 3057, "\u2581amount": 3058, "\u2581clos": 3059, "\u2581constructor": 3060, "\u2581\u0907\u0923\u094d\u0921\u0947\u0915\u094d\u0938\u094d": 3061, "\u2581\u091a\u0932\u091a\u094d\u091a\u093f\u0924\u094d\u0930": 3062, "\u2581\u092a\u0902\u091a\u093e\u0902\u0917": 3063, "\u2581\u092e\u0940\u0921\u093f\u092f\u093e": 3064, "\u2581\u0936\u0943\u0923\u094b\u0924": 3065, "\u2581\u0936\u094b\u092e\u093f\u0930\u094b\u0923\u0940\u092f": 3066, "\u2581\u0938\u0941\u0926\u0943\u0922\u093c": 3067, "\u0935\u0932\u094b\u0915\u094d\u092f\u0924\u093e\u092e\u094d": 3068, "\u2581\u092a\u093e\u0930\u0902\u092a\u0930\u093f\u0915": 3069, "Calcul": 3070, "SQL": 3071, "ource": 3072, "\u2581\u0905\u0930\u094d\u091c\u0941\u0928": 3073, "\u2581\u092a\u094b\u091f\u0932\u093f\u0915": 3074, "\u2581\u092a\u094d\u0930\u0926\u0926\u093e\u0924\u093f": 3075, "\u2581\u092c\u093e\u0924\u091a\u0940\u0924": 3076, "Check": 3077, "\u092a\u094d\u0930\u0926\u0942\u0937\u0923": 3078, "\u0930\u093f\u0938\u094b\u0930\u094d\u0938": 3079, "\u2581\u0905\u0928\u0941\u092e\u094b\u0926": 3080, "\u2581\u0921\u093f\u0932\u0940\u091f\u094d": 3081, "\u2581\u0924\u093e\u0921\u093e\u0938\u0928": 3082, "\u2581\u092e\u093f\u091f\u094d\u091f\u0940": 3083, "\u2581\u0905\u092d\u093f\u092d\u093e\u0937\u0923": 3084, "\u2581\u0917\u094d\u0930\u0940\u0935\u093e": 3085, "\u2581tool": 3086, "\u2581\u0924\u0924\u094d\u092a\u0936\u094d\u091a\u093e": 3087, "\u2581\u0915\u0936\u094d\u091a\u093f\u0928\u094d": 3088, "\u2581\u0939\u093f\u092e\u093e\u0932\u092f": 3089, "ient": 3090, "\u0905\u0928\u0941\u091a\u094d\u091b\u0947\u0926": 3091, "\u2581\u092b\u0948\u0938\u0932": 3092, "\u2581\u0916\u093f\u0938\u0915": 3093, "\u2581\u092d\u0917\u0935\u0924": 3094, "\u092e\u0942\u0930\u094d\u0924\u093f": 3095, "\u2581\u0926\u0926\u093e\u0924\u0941": 3096, "\u2581\u092e\u093e\u0924\u093e\u092e\u0939": 3097, "\u2581\u0938\u0902\u0935\u093f\u0926\u093e": 3098, "\u0938\u092e\u094d\u092a\u093e\u0926\u0928": 3099, "\u2581\u092a\u094d\u0930\u0935\u093f\u0936\u0924": 3100, "\u2581\u0926\u093e\u092f\u093f\u0924\u094d\u0935": 3101, "\u0918\u0941\u091f\u0928": 3102, "\u0928\u0941\u0938\u0943\u0924\u094d\u092f": 3103, "\u2581\u092d\u093f\u0924\u094d\u0924": 3104, "gree": 3105, "lete": 3106, "\u2581\u0928\u093f\u0937\u094d\u092a\u093e": 3107, "equ": 3108, "\u092c\u0941\u0915\u094d": 3109, "\u2581\u0907\u0926\u092e\u0938\u094d\u092e\u093e\u0915": 3110, "\u0906\u0908\u091f\u0940": 3111, "\u0906\u0908\u0938\u0940": 3112, "\u0928\u093f\u0930\u094d\u0917\u0924": 3113, "\u2581\u0928\u092e\u093e\u091c": 3114, "\u2581\u092e\u0941\u0938\u0932\u092e\u093e\u0928": 3115, "\u2581\u092e\u0928\u0941\u0937\u094d\u092f\u093e\u0923\u093e": 3116, "\u0906\u0908\u090f": 3117, "\u0909\u0926\u093e\u0939\u0930\u0923": 3118, "\u092a\u094d\u0930\u0936\u094d\u0928": 3119, "name": 3120, "\u2581\u092f\u0942\u0938\u0941\u092b": 3121, "\u2581\u0905\u092b\u094d\u0930\u0940\u0915": 3122, "while": 3123, "\u258116.05": 3124, "\u2581\u092a\u0947\u0915\u0947\u091c\u094d": 3125, "\u2581\u092c\u0930\u094d\u0923\u092c\u094d\u092c\u093e": 3126, "\u2581\u092e\u0947\u0937\u0936\u093e\u0935\u0915": 3127, "AME": 3128, "Order": 3129, "String": 3130, "ategories": 3131, "oogle": 3132, "{0}": 3133, "\u0906\u0930\u094d\u0917\u094d\u092f\u0941\u092e\u0947\u0923\u094d\u091f\u094d": 3134, "\u0909\u0924\u094d\u0938\u0930\u094d\u0917\u0924\u092f\u093e": 3135, "\u092a\u0930\u094d\u092f\u094d\u092f\u0928\u094d\u0924": 3136, "\u2581Layer": 3137, "\u2581category": 3138, "\u2581\u0905\u092c\u094d\u0926\u0941\u0932": 3139, "\u2581\u0905\u0938\u094d\u092a\u0924\u093e\u0932": 3140, "\u2581\u0907\u0928\u093f\u0936\u093f\u092f\u0932\u0948\u0938": 3141, "\u2581\u0915\u0902\u092a\u094d\u092f\u0942\u091f\u0930": 3142, "\u0931": 3143, "\u0088": 3144, "\u00a6": 3145, "<": 3146, "\u091e": 3147, "\u0944": 3148, "\u00b0": 3149, "\u0087": 3150, "\u0081": 3151, "\u0946": 3152, "\u0086": 3153, "\u0085": 3154, "\u00b7": 3155, "\u03bc": 3156, "\u00ac": 3157, "\u009a": 3158, "|": 3159, "\u090d": 3160, "\u0970": 3161, "\u008a": 3162, "\u00a7": 3163, "\u008c": 3164, "\u00a3": 3165, "\u00e9": 3166, "\u03c0": 3167, "\u0950": 3168, "\u00a2": 3169, "\u00e4": 3170, "`": 3171, "\u090e": 3172, "\u0096": 3173, "\u00a1": 3174, "\u0080": 3175, "\u00b6": 3176, "\u00ab": 3177, "\u009c": 3178, "\u00ae": 3179, "\u0082": 3180, "\u0097": 3181, "\u008b": 3182, "\u0308": 3183, "\u0304": 3184, "\u0327": 3185, "\u0095": 3186, "\u2044": 3187, "\u0105": 3188, "~": 3189, "\u0089": 3190, "\u0091": 3191, "\u00a9": 3192, "\u00c7": 3193, "\u00da": 3194, "\u010d": 3195, "\u0147": 3196, "\u094a": 3197, "\u0083": 3198, "\u0911": 3199}