{"<unk>": 0, "<s>": 1, "</s>": 2, "\u2581\u0915": 3, "\u094d\u092f": 4, "\u2581\u0938": 5, "\"\"": 6, "\u094d\u0930": 7, "\u2581\u092a": 8, "\u094d\u0924": 9, "\u2581\u092e": 10, "\u2581\u0939": 11, "\u2581\u0905": 12, "\u2581\u0924": 13, "\u093e\u0928": 14, "\u2581\u0935": 15, "\u0930\u094d": 16, "\u2581\u0928": 17, "\u093e\u0930": 18, "\u2581\u091c": 19, "\u094d\u0935": 20, "\u2581\u092f": 21, "\u0924\u093f": 22, "\u2581\u0926": 23, "\u0947\u0902": 24, "\u2581\u0909": 25, "\u2581\u092a\u094d\u0930": 26, "\u093f\u0924": 27, "\u2581\u0907": 28, "\u2581\u092c": 29, "\u2581\u0939\u0948": 30, "\"\"\"": 31, "\u2581\u0915\u0947": 32, "\u2581\u092d": 33, "\u0928\u094d\u0924": 34, "\u092e\u094d": 35, "\u2581\u0964": 36, "\u092f\u093e": 37, "\u2581\u0932": 38, "\u2581\u0930": 39, "\u0938\u094d": 40, "\u0928\u094d": 41, "\u2581\u091a": 42, "\u2581\u0915\u0930": 43, "\u0928\u093e": 44, "\u094b\u0902": 45, "\u0924\u094d": 46, "\u0938\u094d\u092f": 47, "\u0924\u093e": 48, "\u0915\u094d": 49, "\u2581\u0906": 50, "\u2581\u0915\u093f": 51, "\u0914\u0930": 52, "\u2581\u092e\u0947\u0902": 53, "\u0928\u0947": 54, "\u093f\u0915": 55, "\u2581\u0914\u0930": 56, "\u0924\u0947": 57, "\u0937\u094d": 58, "\u2581\u0917": 59, "\u093e\u092e": 60, "\u2581\u0936": 61, "\u2581\u092a\u0930": 62, "\u2581\u0915\u094b": 63, "\u2581\u090f": 64, "\u2581\u0915\u0940": 65, "\u093e\u0932": 66, "\u2581\u0935\u093f": 67, "\u0925\u093e": 68, "\u0938\u094d\u0924": 69, "\u092e\u093e": 70, "\u094d\u092f\u093e": 71, "\u2581\u0938\u0947": 72, "\u2581\u0915\u093e": 73, "\u2581\"": 74, "\u093e\u0902": 75, "\u0924\u094d\u0930": 76, "\u094d\u091a": 77, "\u2581(": 78, "\u0926\u094d": 79, "\u0915\u094d\u0937": 80, "\u094b\u0917": 81, "\u0924\u0940": 82, "\u2581\u0905\u092a": 83, "\u0939\u0940": 84, "\u0926\u093e": 85, "\u2581\u0928\u093f": 86, "\u0924\u094d\u092f": 87, "\u0932\u094d": 88, "\u2581\"\"\"": 89, "\u2581\u092d\u0935": 90, "\"\"\"\"": 91, "\u0930\u094d\u0935": 92, "\u094d\u0935\u093e": 93, "\u093e\u0928\u094d": 94, "\u2581\u0938\u0902": 95, "\u0928\u094d\u0924\u0941": 96, "\u0935\u093e": 97, "\u093f\u092f": 98, "\u0915\u094d\u0924": 99, "\u0947\u0936": 100, "\"\"\"\"\"\"\"": 101, "\u0937\u094d\u091f": 102, "\u092e\u093f": 103, "\u2581\u092b": 104, "\u2581\u091c\u093e": 105, "\u0938\u0947": 106, "\u2581\u0939\u094b": 107, "\u0930\u093e": 108, "\u2581\u0916": 109, "\u0915\u0947": 110, "\u0932\u093e": 111, "\u2581\u0938\u092e": 112, "\u2581\u0938\u094d": 113, "\u093f\u0928": 114, "\u2581\u090f\u0915": 115, "\u0939\u0940\u0902": 116, "\u0915\u093e": 117, "\u092f\u0902": 118, "\u2581\u0932\u093f": 119, "\u0928\u094d\u0924\u093f": 120, "\u2581\u0909\u092a": 121, "\u0928\u0941": 122, "\u093e\u092a": 123, "\u093e\u0935": 124, "\u0941\u0902": 125, "\u2581\u0928\u0939\u0940\u0902": 126, "\u2581\u0924\u0941": 127, "\u2581\u0907\u0924\u093f": 128, "\u0921\u093c": 129, "\u2581\u0915\u0941": 130, "\u0964\"": 131, "\u2581\u0938\u093e": 132, "\u2581\u0907\u0924\u094d\u092f": 133, "\u0919\u094d": 134, "\u2581\u0939\u0948\u0902": 135, "\u0930\u0940": 136, "\u0915\u093e\u0930": 137, "\u093e\u0928\u093f": 138, "\u2581\u0905\u0927": 139, "\u2581\u0924\u094b": 140, "\u2581\u0907\u0938": 141, "\u2581\u0909\u0938": 142, "\u0930\u094d\u0925": 143, "\u0926\u093f": 144, "\u2581\u0927": 145, "\u093e\u092f": 146, "\u0947\u0937": 147, "\u091f\u094d": 148, "\u093e\u0924": 149, "\u0928\u0940": 150, "\u0930\u094d\u0924": 151, "\u2581\u092d\u0940": 152, "\u0932\u0947": 153, "\u093e\u0926": 154, "\u2581\u0924\u0925\u093e": 155, "\u092a\u093f": 156, "\u092e\u0947": 157, "\u092e\u093e\u0928": 158, "\u2581\u0909\u0928": 159, "\u2581\u0928\u0947": 160, "\u2581\u0932\u093f\u090f": 161, "\u2581\u0964\"\"\"": 162, "\u0935\u093f": 163, "\u0938\u093e": 164, "\u0938\u0940": 165, "\u2581\u0926\u0947": 166, "\u0938\u094d\u0924\u093f": 167, "\u091a\u094d": 168, "\u0942\u092a": 169, "\u0936\u094d\u091a": 170, "\u2581\u091c\u094b": 171, "\u092a\u0930": 172, "\u0941\u0926": 173, "\u2581\u092f\u0939": 174, "\u0926\u094d\u0927": 175, "\u0943\u0924": 176, "\u2581\u0939\u092e": 177, "\u093f\u092f\u093e": 178, "\u2581\u0938\u094d\u0935": 179, "\u0915\u0930": 180, "\u091a\u094d\u091b": 181, "\u092a\u094d\u0930": 182, "\u0936\u094d\u092f": 183, "\u0927\u094d\u092f": 184, "\u0930\u0947": 185, "\u2581\u091f": 186, "\u2581\u0930\u093e": 187, "\u0902\u0917": 188, "\u0939\u093e": 189, "\u2581\u0938\u0930\u094d\u0935": 190, "in": 191, "\u0924\u0941": 192, "\u093f\u0937": 193, "\u2581\"\"\"\"\"\"\"": 194, "er": 195, "\u2581\u0921": 196, "\u2581\u0915\u093f\u092f\u093e": 197, "\u0923\u094d": 198, "\u093f\u0930": 199, "\u091e\u094d\u091a": 200, "\u2581\u092a\u0942": 201, "\u0926\u0902": 202, "\u092f\u094b": 203, "\u0947\u0928": 204, "\u2581\u092f\u0941": 205, "\u093f\u0915\u093e": 206, "\u094d\u0930\u0940": 207, "\u2581|": 208, "\u0930\u094d\u0923": 209, "\u2581\u0935\u0939": 210, "\u2581\u092a\u0930\u093f": 211, "\u2581\u0932\u094b\u0917": 212, "\u091c\u093c": 213, "\u0939\u0902": 214, "\u0939\u093f": 215, "\u094d\u091e": 216, "\u2581\u092a\u093e": 217, "\u0915\u093f": 218, "\u0926\u0947\u0936": 219, "\u2581\u0915\u094d": 220, "on": 221, "\u0924\u0903": 222, "\u2581\u0925": 223, "\u0924\u094d\u0924": 224, "\u2581\u092e\u0941": 225, "\u2581\u0915\u0930\u0928\u0947": 226, "\u094b\u0915": 227, "\u0928\u094d\u092f": 228, "\u2581\u092f\u093e": 229, "\u0915\u094d\u0930": 230, "\u0924\u094b": 231, "\u093e\u0930\u0947": 232, "\u2581\u0915\u093e\u0930": 233, "\u2581\u0924\u0941\u092e": 234, "\u0928\u093f": 235, "\u0939\u0947": 236, "\u2581\u0938\u0941": 237, "\u0926\u094d\u092f": 238, "\u0930\u094d\u092e": 239, "\u0915\u0940": 240, "\u093f\u0938": 241, "\u2581s": 242, "\u2581\u0935\u0947": 243, "\u0938\u094d\u092e\u093e": 244, "\u2581\u091c\u093e\u0928": 245, "en": 246, "\u0915\u0902": 247, "\u092f\u0947": 248, "\u0930\u0923": 249, "\u092f\u093f\u0924": 250, "\u0927\u094d\u092f\u0947": 251, "\u2581\u092a\u094d\u0930\u0924\u093f": 252, "\u2581\u092a\u094d\u0930\u093e\u092a": 253, "\u0938\u094d\u0925": 254, "\u2581\u092c\u0939": 255, "\u2581\u0905\u092a\u093f": 256, "\u093e\u0917": 257, "\u25811": 258, "\u0936\u094d\u0935": 259, "\u2581\u092d\u093e\u0930": 260, "es": 261, "\u0921\u094d": 262, "\u2581\u092e\u093e": 263, "\u093f\u0937\u094d\u092f": 264, "\u2581\u0907\u0924\u0940": 265, "\u2581\u0935\u092f\u0902": 266, "\u2581\u0908": 267, "\u091c\u0928": 268, "\u0930\u0902": 269, "\u092d\u094d\u092f": 270, "\u2581\u092a\u0941": 271, "\u2581\u0932\u0947": 272, "\u0928\u094d\u0926": 273, "\u0928\u094d\u0924\u0903": 274, "\u093f\u092f\u094b\u0902": 275, "\u2581\u0905\u0928\u0941": 276, "\u092f\u0941": 277, "\u2581\u0928\u0941\u0926": 278, "\u2581\u0907\u0924\u094d\u092f\u0938\u094d\u092f": 279, "\u2581\u0910": 280, "\u093e\u0930\u093e": 281, "\u0941\u0926\u093e": 282, "\u2581\u0935\u093e": 283, "\u2581\u0939\u0940": 284, "\u0915\u094b": 285, "\u092c\u094d": 286, "\u093e\u0930\u0940": 287, "\u0938\u0902": 288, "\u2581\u0916\u093c": 289, "\u2581\u0939\u0941": 290, "\u0940\u092f": 291, "\u2581S": 292, "\u0937\u094d\u0920": 293, "\u2581\u092e\u0947": 294, "\u2581\u0938\u0915": 295, "\u0935\u093e\u0928\u094d": 296, "\u0942\u0932": 297, "\u2581\u091b": 298, "\u0939\u0947\u0902": 299, "\u094d\u092f\u0902": 300, "\u2581\u0925\u093e": 301, "\u0938\u094d\u092e\u093f": 302, "\u2581\u0905\u0938\u094d\u0924\u093f": 303, "al": 304, "\u0917\u093e": 305, "\u0932\u093f": 306, "\u091a\u093e\u0930": 307, "\u0930\u094d\u0936": 308, "\u093f\u0924\u093e": 309, "\u2581\u0938\u0942": 310, "\u2581\u0915\u094d\u0937": 311, "\u2581\u092f\u0941\u0937\u094d": 312, "\u2581\u092e\u0927\u094d\u092f\u0947": 313, "\u0917\u0930": 314, "\u092d\u093f": 315, "\u0926\u093e\u0928": 316, "\u094d\u0930\u093e": 317, "\u2581\u0938\u0939": 318, "\u2581\u0938\u093f": 319, "\u2581\u0915\u0930\u094b": 320, "\u093f\u0932": 321, "\u2581\u0918": 322, "\u092f\u094b\u0917": 323, "\u2581\u0905\u0935": 324, "at": 325, "or": 326, "\u0964\"\"\"": 327, "\u2581\u0909\u0928\u094d": 328, "\u2581\u091c\u093f\u0938": 329, "\u2581\u0935\u094d\u092f": 330, "\u0928\u094b": 331, "\u092a\u093e": 332, "\u2581t": 333, "\u0930\u094d\u0917": 334, "\u2581\u0924\u0947": 335, "\u2581\u0926\u0943": 336, "\u2581\u0936\u0915\u094d": 337, "\u2581\u0924\u0938\u094d\u092f": 338, "\u0964\"\"\"\"\"\"\"": 339, "\u0928\u0902": 340, "\u092a\u0942": 341, "\u0935\u0902": 342, "\u0924\u094d\u0935": 343, "\u2581\u092e\u0939": 344, "\u0915\u094d\u0924\u093f": 345, "\u2581\u0924\u094d\u0935": 346, "\u2581\u0905\u0927\u093f\u0915": 347, "\u2581\u0905\u092a\u0928\u0947": 348, "..": 349, "\u0917\u0947": 350, "\u0923\u093e": 351, "\u0940\u0928": 352, "\u0941\u0930": 353, "\u25812": 354, "\u0917\u094d\u0930": 355, "\u092f\u093e\u0902": 356, "\u093e\u0928\u0947": 357, "\u2581\u0915\u0925": 358, "\u2581\u091a\u093e": 359, "\u2581\u0926\u094b": 360, "\u2581\u0926\u094d\u0935": 361, "\u2581\u092d\u0935\u0924\u093f": 362, "\u2581\u092a\u094d\u0930\u093e\u092a\u094d\u0924": 363, "ce": 364, "\u092e\u0903": 365, "\u0930\u093f": 366, "\u0948\u0902": 367, "\u2581\u0913": 368, "\u091a\u094d\u091a": 369, "\u093e\u0932\u0947": 370, "\u2581\u0907\u0924\u0940\u0926\u0902": 371, "\u2581\u0928\u0941\u0926\u0928\u094d\u0924\u0941": 372, "\u0941\u0928\u093e": 373, "\u2581\u0909\u0924\u094d": 374, "\u2581\u092d\u093e\u0930\u0924": 375, "\u0915\u0943": 376, "\u0940\u0935": 377, "\u0919\u094d\u0915": 378, "\u2581\u0915\u0943": 379, "\u2581\u0930\u0942\u092a": 380, "le": 381, "\u092d\u0935": 382, "\u2581a": 383, "\u093e\u0928\u093e": 384, "\u0915\u094d\u0937\u093e": 385, "\u093e\u0928\u093e\u0902": 386, "\u2581\u0935\u093f\u0936": 387, "\u2581\u0938\u093e\u0925": 388, "\u0923\u093f": 389, "\u0941\u0924": 390, "\u0930\u0942\u092a": 391, "\u0930\u094d\u0937": 392, "\u093e\u092e\u093f": 393, "\u0947\u0937\u0941": 394, "\u2581\u091a\u0947": 395, "\u2581\u0926\u0942": 396, "\u2581\u091c\u094d\u091e": 397, "\u2581\u0938\u094d\u0925": 398, "\u0938\u094d\u092e\u093f\u0928\u094d": 399, "\u2581\u0916\u093c\u0941\u0926\u093e": 400, "\u091c\u093e": 401, "\u2581C": 402, "\u2581\u092a\u0939": 403, "\u2581\u0915\u094d\u0930": 404, "\u2581\u0938\u0930\u094d\u0935\u094d\u0935": 405, "\u0926\u0940": 406, "\u091c\u094d\u092f": 407, "\u094d\u092f\u0941": 408, "\u2581\u0906\u092a": 409, "\u2581\u0925\u0947": 410, "\u2581\u0928\u093e": 411, "\u2581\u092b\u093c": 412, "\u2581\u092c\u093e": 413, "\u0913\u0902": 414, "\u0917\u0940": 415, "\u0938\u0928": 416, "\u2581'": 417, "\u2581c": 418, "\u0923\u094d\u0921": 419, "\u0928\u094d\u0928": 420, "\u092e\u0947\u0902": 421, "\u2581\u0926\u093f": 422, "\u0935\u0930\u094d\u0924": 423, "\u2581\u0915\u094b\u0908": 424, "\u2581\u0926\u0947\u0936": 425, "\u2581\u092f\u0926\u093f": 426, "\u2581\u0938\u093e\u092e": 427, "\u2581\u0905\u0928\u094d\u092f": 428, "\u2581\u092a\u094d\u0930\u093e": 429, "\u0930\u094b": 430, "\u0938\u093f": 431, "\u0940\u0936": 432, "\u0942\u0924": 433, "\u0947\u0923": 434, "\u092f\u0924\u093f": 435, "\u2581\u091c\u092c": 436, "\u2581\u092f\u0925\u093e": 437, "\u2581\u0909\u0928\u0915\u0947": 438, "\u2581\u0915\u0930\u094d\u0924": 439, "\u2581\u0924\u0941\u092e\u094d": 440, "ar": 441, "as": 442, "\u0902\u0921": 443, "\u0917\u094d": 444, "\u0922\u093c": 445, "\u091c\u094d\u091e": 446, "\u0927\u093e\u0930": 447, "\u2581\u0915\u093c": 448, "\u0938\u094d\u0925\u093e": 449, "\u093e\u0928\u094d\u0924": 450, "\u093f\u0924\u094d\u0930": 451, "\u2581\u0915\u0941\u091b": 452, "\u2581\u091c\u093e\u0924\u093e": 453, "\u2581\u0915\u0941\u0930\u094d\u0935": 454, "me": 455, "\u0932\u094b": 456, "\u0940\u0902": 457, "\u0938\u094d\u091f": 458, "\u2581\u092c\u0941": 459, "\u2581\u092f\u094b": 460, "\u2581\u0939\u0947": 461, "\u2581\u092e\u093e\u0928": 462, "\u2581\u0938\u092e\u094d": 463, "\u2581\u0909\u0938\u0915\u0947": 464, "\u2581\u0915\u0930\u0924\u0947": 465, "\u2581\u0915\u0930\u0947\u0902": 466, "\u2581\u0915\u093f\u0938\u0940": 467, "\u2581\u0928\u093f\u0930\u094d": 468, "is": 469, "\u0924\u0930": 470, "\u092a\u0941": 471, "\u092d\u093e": 472, "\u0943\u0939": 473, "\u092a\u094d\u0924": 474, "\u0938\u094d\u0935": 475, "\u093e\u0932\u0940": 476, "\u2581\u0930\u0916": 477, "\u2581\u092e\u0948\u0902": 478, "\u2581\u0938\u0942\u091a": 479, "\u2581\u0905\u092a\u0928\u0940": 480, "\u2581\u0935\u0930\u094d\u0924": 481, "\u2581\u0915\u093e\u0930\u094d\u092f": 482, "\u2581\u0932\u094b\u0917\u094b\u0902": 483, "\u2581\u0915\u093f\u0928\u094d\u0924\u0941": 484, "\u090f\u0901": 485, "\u091c\u0940": 486, "\u092d\u0940": 487, "\u0935\u0947": 488, "\u0936\u093e": 489, "\u0939\u0930": 490, "\u2581p": 491, "\u092e\u092a\u093f": 492, "\u2581\u090f\u0924": 493, "\u2581\u0926\u0941": 494, "\u2581\u092f\u0942": 495, "\u2581\u0939\u093f": 496, "\u2581\u0917\u092f\u093e": 497, "\u0937\u094d\u091f\u094d\u0930": 498, "\u2581\u0915\u0930\u0924\u093e": 499, "\u2581\u0938\u0928\u094d\u0924\u093f": 500, "00": 501, "nt": 502, "re": 503, "\u0902\u0927": 504, "\u091f\u0940": 505, "\u092a\u094d": 506, "\u092f\u0924": 507, "\u0938\u092e": 508, "ion": 509, "\u092a\u0924\u093f": 510, "\u092a\u093e\u0926": 511, "\u093e\u092e\u0903": 512, "\u094d\u092f\u0942": 513, "\u2581\u0924\u0915": 514, "\u2581\u0924\u0930": 515, "\u2581\u0905\u0939\u0902": 516, "\u2581\u0924\u0924\u094d": 517, "\u092a\u0942\u0930\u094d\u0923": 518, "\u2581\u092a\u0936\u094d\u092f": 519, "\u2581\u092a\u094d\u0930\u092d": 520, "\u2581\u0936\u0915\u094d\u0928\u0941": 521, "\u091c\u094d": 522, "\u0926\u0947": 523, "\u092c\u0930": 524, "\u2581E": 525, "\u2581n": 526, "\u092e\u093e\u0923": 527, "\u0935\u093e\u0930": 528, "\u0935\u093f\u0927": 529, "\u0938\u094d\u092e": 530, "\u0941\u092e\u094d": 531, "\u2581\u092e\u094b": 532, "\u2581\u0930\u0939": 533, "\u0924\u094d\u0930\u093e": 534, "\u0932\u094d\u0932\u093e": 535, "\u2581\u0915\u093f\u0902": 536, "\u2581\u0924\u0930\u094d": 537, "\u2581\u0926\u0947\u0916": 538, "\u2581\u0915\u094d\u092f\u093e": 539, ".\"": 540, "\u091f\u093e": 541, "\u092e\u0902": 542, "\u0930\u0941": 543, "\u0936\u093f": 544, "\u2581M": 545, "\u0915\u094d\u0938": 546, "\u2581\u0932\u093e": 547, "\u0915\u094d\u0937\u0923": 548, "\u0924\u094d\u0935\u093e": 549, "\u2581\u092c\u093e\u0924": 550, "\u2581\u0938\u092e\u093e": 551, "\u0935\u0928\u094d\u0924\u0903": 552, "\u2581\u0926\u0943\u0937\u094d\u091f": 553, "--": 554, "ou": 555, "\u0924\u0902": 556, "\u2581,": 557, "\u0927\u093e\u0928": 558, "\u0928\u093e\u0902": 559, "\u2581\u0906\u0917": 560, "\u2581\u0907\u0928": 561, "\u2581\u091c\u0928": 562, "\u2581\u092f\u0947": 563, "\u0930\u094d\u0925\u0902": 564, "\u0947\u0924\u094d\u0930": 565, "\u0947\u0937\u093e\u0902": 566, "\u094d\u092f\u0924\u0947": 567, "\u2581\u0924\u0926\u093e": 568, "\u2581\u092b\u093f\u0930": 569, "\u2581\u092e\u0942\u0932": 570, "pa": 571, "ro": 572, "\u0935\u0932": 573, "\u0926\u094d\u0930": 574, "\u0926\u094d\u0935": 575, "\u0935\u094d\u092f": 576, "\u093e\u0932\u093e": 577, "\u2581\u0915\u092e": 578, "\u2581\u0924\u0948": 579, "\u2581\u0928\u093e\u092e": 580, "\u2581\u0930\u0939\u093e": 581, "\u2581\u0935\u094d\u092f\u093e": 582, "\u2581\u0905\u0938\u094d\u092e\u093e": 583, "\u2581\u092a\u094d\u0930\u0924\u094d\u092f": 584, "\u2581\u092f\u0941\u0937\u094d\u092e\u093e": 585, "\u2581\u092a\u0930\u093f\u0935\u0930\u094d\u0924": 586, "\u092f\u092e": 587, "\u093f\u092e": 588, "\u0941\u0903": 589, "\u0930\u094d\u091c": 590, "\u093f\u0924\u0902": 591, "\u2581\u0905\u0902": 592, "\u2581\u092a\u0943": 593, "\u2581\u0938\u094b": 594, "\u0926\u0930\u094d\u0936": 595, "\u0928\u0928\u094d\u0924": 596, "\u2581\u092f\u0924\u094d": 597, "\u2581\u0905\u0924\u094d\u0930": 598, "\u2581\u0908\u0936\u094d\u0935": 599, "\u2581\u0926\u093f\u092f\u093e": 600, "\u2581\u092c\u0939\u0941\u0924": 601, "\u2581\u0924\u0930\u094d\u0939\u093f": 602, ",\"": 603, "\u0928\u0903": 604, "\u092e\u0924": 605, "\u092e\u0941": 606, "\u2581T": 607, "\u2581d": 608, "\u0915\u0943\u0924": 609, "\u0923\u093e\u0902": 610, "\u0927\u093f\u0915": 611, "\u092a\u0930\u093f": 612, "\u0932\u094b\u0915": 613, "\u2581\u0935\u0926": 614, "\u0928\u094d\u0924\u0947": 615, "\u0938\u094d\u092f\u093e": 616, "\u093f\u0924\u094d\u0924": 617, "\u2581\u0905\u0928\u0947": 618, "\u2581\u092f\u0940\u0936": 619, "\u2581\u0932\u094b\u0915": 620, "\u2581\u0938\u094d\u092a": 621, "\u2581\u0939\u0941\u090f": 622, "\u0928\u094d\u0926\u094d\u0930": 623, "\u0932\u094d\u0932\u093e\u0939": 624, "\u2581\u0915\u0930\u0928\u093e": 625, "\u2581\u091f\u0919\u094d\u0915": 626, "\u2581\u0938\u0915\u0924\u093e": 627, "\u2581\u092a\u0942\u0930\u094d\u0935": 628, "\u2581\u0935\u0930\u094d\u0924\u0924\u0947": 629, "\u2581\u0930\u093e\u0937\u094d\u091f\u094d\u0930": 630, "he": 631, "st": 632, "\u091e\u094d": 633, "\u0932\u0940": 634, "\u0921\u093c\u093e": 635, "\u0924\u093e\u0902": 636, "\u0930\u094d\u092f": 637, "\u2581||": 638, "\u2581\u091c\u0948": 639, "\u2581\u0938\u0940": 640, "\u2581\u0909\u0938\u0947": 641, "\u2581\u0915\u0943\u0924": 642, "\u2581\u0917\u0943\u0939": 643, "\u2581\u091c\u0940\u0935": 644, "\u2581\u092c\u0928\u093e": 645, "\u092f\u093f\u0924\u0941\u0902": 646, "\u092f\u0941\u0915\u094d\u0924": 647, "\u2581\u0909\u0928\u094d\u0939\u0947\u0902": 648, "\u2581\u092d\u0935\u0928\u094d\u0924\u0903": 649, "\u2581\u0915\u094d\u0937\u0947\u0924\u094d\u0930": 650, "\u0917\u0924": 651, "\u091c\u0947": 652, "\u091f\u093f": 653, "\u092b\u093c": 654, "\u0937\u0941": 655, "\u25813": 656, "\u2581I": 657, "ent": 658, "\u0915\u0930\u0923": 659, "\u0928\u094b\u0902": 660, "\u0928\u094d\u0927": 661, "\u0932\u094d\u092a": 662, "\u0938\u093e\u0930": 663, "\u0939\u094b\u0902": 664, "\u2581\u0917\u0941": 665, "\u2581\u091a\u093f": 666, "\u2581\u091c\u093c": 667, "\u2581\u0924\u093e": 668, "\u2581\u0925\u0940": 669, "\u2581\u0938\u094d\u0924": 670, "\u2581\u0938\u094d\u0925\u093e": 671, "\u2581\u0907\u0924\u094d\u092f\u0947": 672, "an": 673, "it": 674, "\u0915\u093c": 675, "\u0936\u0940": 676, "\u0937\u093e": 677, "\u2581-": 678, "\u2581b": 679, "\u2581\u00e0": 680, "\u0921\u093c\u0947": 681, "\u092c\u0902\u0927": 682, "\u092e\u094d\u092e": 683, "\u092f\u093e\u0903": 684, "\u0930\u093f\u092f": 685, "\u0937\u094d\u092f": 686, "\u093f\u0924\u094d": 687, "\u094d\u0930\u0947": 688, "\u2581\u090f\u0935": 689, "\u2581\u0913\u0930": 690, "\u2581\u092a\u0940": 691, "\u2581\u092a\u0948": 692, "\u2581\u0932\u094b": 693, "\u2581\u0938\u0930": 694, "\u0923\u094d\u091f\u094d": 695, "\u0924\u094d\u092f\u093e": 696, "\u2581\u092a\u093e\u0920": 697, "\u2581\u092e\u0941\u0916": 698, "\u2581\u0930\u0939\u0947": 699, "\u092f\u0928\u094d\u0924\u0941": 700, "\u2581\u0908\u092e\u093e\u0928": 701, "\u2581\u0915\u0947\u0935\u0932": 702, "\u2581\u091a\u0947\u0924\u094d": 703, "\u2581\u092a\u0936\u094d\u091a": 704, "\u2581\u0905\u0927\u0941\u0928\u093e": 705, "\u2581\u092a\u094d\u0930\u0915\u093e\u0930": 706, "\u2581\u092d\u0935\u093f\u0937\u094d\u092f": 707, "\u0916\u093e": 708, "\u0927\u093e": 709, "\u094b\u091c": 710, "\u2581F": 711, "\u2581L": 712, "ame": 713, "\u0930\u094b\u0902": 714, "\u0939\u092e\u094d": 715, "\u093e\u0924\u094d": 716, "\u2581\u0926\u0940": 717, "\u2581\u0930\u0947": 718, "\u0930\u0938\u094d\u092f": 719, "\u2581\u090f\u0935\u0902": 720, "\u2581\u0924\u0930\u0939": 721, "\u2581\u092c\u093e\u0932": 722, "\u2581\u0930\u094b\u0917": 723, "\u2581\u0936\u094d\u0930": 724, "\u093f\u0924\u094d\u0935\u093e": 725, "\u2581\u0924\u094d\u0935\u0902": 726, "\u0928\u0928\u094d\u0924\u0930\u0902": 727, "\u092f\u093f\u0924\u094d\u0935\u093e": 728, "\u2581\u092f\u0941\u0937\u094d\u092e": 729, "\u2581\u0935\u093f\u0926\u094d\u092f": 730, "\u2581\u0935\u093f\u0936\u094d\u0935": 731, "\u2581\u0905\u0932\u094d\u0932\u093e\u0939": 732, "et": 733, "il": 734, "\u0926\u0943": 735, "\u092f\u0928": 736, "\u2581A": 737, "\u2581B": 738, "\u2581\u091d": 739, "\u0915\u094d\u091f": 740, "\u0919\u094d\u0917": 741, "\u0924\u0940\u092f": 742, "\u092f\u092e\u094d": 743, "\u093e\u0928\u0902": 744, "\u2581\u0906\u0935": 745, "\u2581\u091c\u0917": 746, "\u2581\u092b\u0932": 747, "\u2581\u092c\u0947": 748, "\u2581\u0936\u093f": 749, "\u2581\u0939\u0942": 750, "pace": 751, "\u092d\u094d\u092f\u0903": 752, "\u092d\u094d\u092f\u093e": 753, "\u0938\u094d\u0924\u0941": 754, "\u0938\u094d\u0924\u0947": 755, "\u0943\u0924\u094d\u0924": 756, "\u094d\u0930\u093e\u092e": 757, "\u2581\u0915\u0939\u093e": 758, "\u2581\u0930\u093e\u091c": 759, "\u2581\u0935\u093f\u0937": 760, "\u2581\u0936\u0930\u0940": 761, "\u2581\u0928\u093f\u0937\u094d": 762, "\u2581\u0915\u0930\u094b\u0924\u093f": 763, "\u2581\u0924\u0941\u092e\u094d\u0939": 764, "\u2581\u0935\u094d\u092f\u0915\u094d\u0924\u093f": 765, "\u2581\u0915\u0941\u0930\u094d\u0935\u0928\u094d\u0924\u0941": 766, "\u090f\u0902": 767, "\u092d\u0942": 768, "\u0938\u0941": 769, "\u0940\u092a": 770, "\u094c\u0930": 771, "\u2581\u2018": 772, "ing": 773, "\u092d\u093f\u0903": 774, "\u0930\u094d\u0915": 775, "\u2581\"\"": 776, "\u2581\u0915\u0939": 777, "\u2581\u0924\u0926": 778, "\u2581\u0928\u0940": 779, "\u2581\u092c\u0940": 780, "\u2581\u092e\u092e": 781, "\u0916\u094d\u092f\u093e": 782, "\u2581\u091c\u093f\u0928": 783, "\u2581\u092c\u093e\u0926": 784, "\u0939\u094b\u0902\u0928\u0947": 785, "\u2581\u0909\u092a\u0930\u093f": 786, "\u2581\u0915\u093e\u0930\u0923": 787, "\u2581\u0939\u094b\u0924\u093e": 788, "\u0915\u094d\u0930\u093f\u092f\u093e": 789, "\u093f\u0924\u0935\u093e\u0928\u094d": 790, "\u2581\u0926\u094d\u0935\u093e\u0930\u093e": 791, "\u2581\u0964\"\"\"\"\"\"\"": 792, "ct": 793, "ic": 794, "\u0915\u0941": 795, "\u091a\u093e": 796, "\u091f\u0928": 797, "\u0927\u093f": 798, "\u0939\u092e": 799, "\u0941\u0928": 800, "\u0942\u0930": 801, "\u0948\u0928": 802, "\u2581\u0914": 803, "\u2581\u0920": 804, "\u091a\u0928\u093e": 805, "\u092d\u093e\u0930": 806, "\u092e\u0947\u0935": 807, "\u092f\u094b\u0903": 808, "\u0938\u094d\u092a": 809, "\u093e\u0932\u092f": 810, "\u2581\u0905\u092c": 811, "\u2581\u091a\u0940": 812, "\u2581\u091c\u0940": 813, "\u2581\u092e\u0928": 814, "\u2581\u0936\u0941": 815, "\u2581\u0938\u092c": 816, "\u2581\u0939\u093e": 817, "nter": 818, "\u092e\u093f\u0924\u093f": 819, "\u0941\u0926\u094d\u0930": 820, "\u094b\u092a\u0930\u093f": 821, "\u094d\u0930\u0940\u092f": 822, "\u2581\u0905\u0917\u0930": 823, "\u2581\u090f\u0924\u093e": 824, "\u2581\u0915\u093e\u092e": 825, "\u2581\u091c\u093e\u090f": 826, "\u2581\u0926\u093f\u0928": 827, "\u2581\u092a\u093e\u0938": 828, "\u2581\u0935\u093f\u0915": 829, "\u2581\u0938\u092e\u091d": 830, "\u2581\u0939\u094b\u0917": 831, "\u0915\u094d\u0937\u094d\u092f": 832, "\u0926\u093e\u0928\u0940\u0902": 833, "\u092e\u0938\u094d\u0924\u093f": 834, "\u0935\u0928\u094d\u0924\u093f": 835, "\u2581\u092f\u0942\u092f\u0902": 836, "\u2581\u0939\u094b\u0928\u0947": 837, "\u2581space": 838, "\u2581\u091a\u093f\u0924\u094d\u0930": 839, "\u2581\u0939\u092e\u093e\u0930\u0947": 840, "\u2581\u092a\u094d\u0930\u092f\u094b\u0917": 841, "\u2581\u0935\u093f\u0936\u094d\u0935\u093e": 842, "ab": 843, "ot": 844, "ut": 845, "\u091f\u0947": 846, "\u0926\u0941": 847, "\u0936\u094b": 848, "\u0938\u0930": 849, "\u0947\u0930": 850, "\u094b\u0932": 851, "\u094d\u0928": 852, "\u2581R": 853, "\u2581f": 854, "\u0915\u092e\u094d": 855, "\u0915\u093f\u0928": 856, "\u0921\u093c\u0940": 857, "\u0926\u092e\u094d": 858, "\u0926\u093e\u0930": 859, "\u092a\u093f\u0924": 860, "\u092d\u093e\u0935": 861, "\u0937\u094d\u0923": 862, "\u093e\u0928\u0940": 863, "\u093f\u0928\u094b": 864, "\u2581\u091b\u094b": 865, "\u2581\u091c\u093f": 866, "\u2581\u0927\u0928": 867, "\u2581\u092b\u0948": 868, "\u2581\u092c\u093f": 869, "\u2581\u092e\u093f": 870, "\u2581\u0930\u0938": 871, "\u0915\u0943\u0924\u093f": 872, "\u0915\u094d\u0937\u093f": 873, "\u0935\u094d\u092f\u093e": 874, "\u093f\u0915\u093e\u0938": 875, "\u0943\u0924\u094d\u092f": 876, "\u094d\u092f\u093e\u0928": 877, "\u094d\u092f\u094b\u0902": 878, "\u2581\u0909\u0926\u094d": 879, "\u2581\u0910\u0938\u093e": 880, "\u2581\u091a\u093e\u0939": 881, "\u2581\u0926\u0942\u0938": 882, "\u2581\u092f\u093e\u0935": 883, "\u2581\u092f\u094b\u0917": 884, "\u2581\u0932\u093f\u0916": 885, "\u094d\u092f\u093e\u0924\u094d": 886, "\u2581\u0915\u0943\u0924\u0947": 887, "\u2581\u0924\u093e\u0915\u093f": 888, "\u2581\u092a\u0939\u0932\u0947": 889, "\u2581\u092a\u094d\u0930\u0925": 890, "\u2581\u0935\u093e\u0932\u0947": 891, "\u2581\u0936\u094d\u0930\u0940": 892, "\u2581\u0915\u093f\u091e\u094d\u091a": 893, "\u2581\u0936\u0915\u094d\u0928\u094b": 894, "\u2581\u0930\u093e\u0937\u094d\u091f\u094d\u0930\u092a\u0924\u093f": 895, "em": 896, "nd": 897, "od": 898, "\u091a\u093f": 899, "\u092b\u0932": 900, "\u0935\u0926": 901, "\u0930\u094d\u0927": 902, "\u0935\u093e\u0926": 903, "\u0935\u0947\u0936": 904, "\u0938\u093e\u0927": 905, "\u093d\u092a\u093f": 906, "\u093f\u0924\u093f": 907, "\u2581st": 908, "\u2581\u0906\u0930": 909, "\u2581\u0917\u090f": 910, "\u2581\u092c\u0926": 911, "\u2581\u092d\u093e": 912, "\u0926\u094d\u0927\u0902": 913, "\u2581\u092d\u0935\u0947": 914, "\u2581\u0938\u092d\u0940": 915, "\u0926\u094d\u092f\u094b\u0917": 916, "\u0930\u094d\u092e\u094d\u092e": 917, "\u0935\u0938\u094d\u0925\u093e": 918, "\u2581\u0905\u092a\u0928\u093e": 919, "\u2581\u0905\u0938\u094d\u092f": 920, "\u2581\u0909\u0938\u0915\u0940": 921, "\u2581\u0926\u0930\u094d\u0936": 922, "\u2581\u092a\u0930\u093f\u0924": 923, "\u2581\u0938\u0915\u0924\u0947": 924, "\u092e\u0947\u0923\u094d\u091f\u094d": 925, "\u2581Enter": 926, "\u2581\u0917\u0924\u094d\u0935\u093e": 927, "\u2581\u0924\u0947\u0937\u093e\u0902": 928, "\u2581\u092e\u0939\u0924\u094d\u0935": 929, "\u2581\u0915\u0930\u094d\u0924\u0941\u0902": 930, "\u2581\u092a\u094d\u0930\u093e\u092a\u094d": 931, "\u2581\u0924\u0941\u092e\u094d\u0939\u0947\u0902": 932, "ok": 933, "om": 934, "ri": 935, "\u0921\u0940": 936, "\u0939\u0942": 937, "\u093e\u0903": 938, "\u0948\u0903": 939, "\u0948\u0935": 940, "\u094b\u0937": 941, "\u2581?": 942, "\u2581D": 943, "\u2581h": 944, "\u2581w": 945, "int": 946, "\u0915\u093e\u0903": 947, "\u0915\u093e\u0932": 948, "\u0915\u094b\u0902": 949, "\u0923\u093e\u092e": 950, "\u0924\u092e\u094d": 951, "\u092c\u094d\u0927": 952, "\u092d\u093e\u0917": 953, "\u092f\u094b\u0902": 954, "\u092f\u094b\u091c": 955, "\u0935\u0930\u0923": 956, "\u0935\u093e\u0932": 957, "\u0939\u0930\u0923": 958, "\u093f\u092f\u094b": 959, "\u2581\u091c\u0932": 960, "\u2581\u0924\u0902": 961, "\u2581\u0926\u093e": 962, "\u2581\u0928\u094b": 963, "\u2581\u092a\u093f": 964, "\u2581\u092c\u0948": 965, "\u2581\u092e\u0942": 966, "\u2581\u0935\u0948": 967, "\u092e\u093e\u0928\u0902": 968, "\u092f\u093e\u092e\u093f": 969, "\u0938\u094d\u092e\u0948": 970, "\u093f\u0937\u094d\u0920": 971, "\u2581\u0905\u0924\u0903": 972, "\u2581\u0907\u0928\u094d": 973, "\u2581\u0917\u094d\u0930": 974, "\u2581\u092c\u0922\u093c": 975, "\u2581\u092c\u0939\u0941": 976, "\u2581\u0938\u094d\u092e": 977, "\u2581\u0939\u0942\u0901": 978, "\u0926\u093f\u0937\u094d\u091f": 979, "\u092f\u094b\u0915\u094d\u0924": 980, "\u2581\u0909\u092a\u092f\u0941": 981, "\u2581\u0909\u0938\u0928\u0947": 982, "\u2581\u0924\u0924\u094d\u0930": 983, "\u2581\u0924\u093e\u0928\u094d": 984, "\u2581\u092a\u094d\u0930\u0915": 985, "\u2581\u0930\u0938\u0942\u0932": 986, "\u2581\u0938\u094d\u0935\u093e": 987, "\u2581\u0939\u092e\u0928\u0947": 988, "\u2581\u0939\u094b\u0917\u093e": 989, "\u2581\u0939\u094b\u0924\u0940": 990, "\u0938\u094d\u092e\u093e\u0924\u094d": 991, "\u2581\u0915\u0930\u094b\u092e\u093f": 992, "\u2581\u092e\u0942\u0932\u094d\u092f": 993, "\u2581\u0935\u093f\u0915\u093e\u0938": 994, "\u2581\u0935\u093f\u091a\u093e\u0930": 995, "\u2581\u0909\u0924\u094d\u092a\u093e\u0926": 996, "\u2581\u092a\u094d\u0930\u0926\u093e\u0928": 997, "\u2581\u092d\u0935\u0928\u094d\u0924\u093f": 998, "\u2581\u0909\u0928\u094d\u0939\u094b\u0902\u0928\u0947": 999, "\u2581\u0936\u0915\u094d\u0928\u0941\u0935\u0928\u094d\u0924\u093f": 1000, "ch": 1001, "of": 1002, "op": 1003, "ra": 1004, "us": 1005, "\u0907\u0928": 1006, "\u0916\u093c": 1007, "\u0917\u093c": 1008, "\u091a\u0928": 1009, "\u091f\u0930": 1010, "\u092c\u093e": 1011, "\u092c\u0947": 1012, "\u092e\u094b": 1013, "\u0935\u0938": 1014, "\u093f\u0902": 1015, "\u2581:": 1016, "\u2581\u090a": 1017, "\u2581\u0922": 1018, "\u0915\u093e\u0936": 1019, "\u092a\u093e\u0920": 1020, "\u092c\u0932\u094d": 1021, "\u092e\u093e\u0902": 1022, "\u0932\u0947\u0916": 1023, "\u0935\u093e\u0938": 1024, "\u0939\u093f\u090f": 1025, "\u094b\u0932\u094d": 1026, "\u094d\u0935\u0947": 1027, "\u258119": 1028, "\u2581\u0905\u0932": 1029, "\u2581\u0917\u094b": 1030, "\u2581\u0921\u093e": 1031, "\u2581\u092e\u094c": 1032, "\u2581\u0932\u0917": 1033, "\u2581\u0936\u093e": 1034, ",\"\"\"": 1035, "\u0915\u094d\u0930\u092e": 1036, "\u0928\u094d\u0938\u094d": 1037, "\u093f\u0924\u0941\u0902": 1038, "\u2581\u090f\u0915\u0902": 1039, "\u2581\u090f\u0924\u0947": 1040, "\u2581\u0915\u0925\u093e": 1041, "\u2581\u0915\u0930\u0923": 1042, "\u2581\u092a\u0939\u0941": 1043, "\u2581\u092e\u093e\u0932": 1044, "\u2581\u0938\u092e\u092f": 1045, "\u2581\u0939\u0941\u0906": 1046, "\u0930\u0942\u092a\u0947\u0923": 1047, "\u2581\u0905\u0917\u094d\u0930": 1048, "\u2581\u0909\u0924\u094d\u0924": 1049, "\u2581\u091c\u0948\u0938\u0947": 1050, "\u2581\u0926\u0947\u0928\u0947": 1051, "\u2581\u092a\u094d\u0930\u094b": 1052, "\u2581\u0909\u092a\u092f\u094b\u0917": 1053, "\u2581\u0915\u0947\u0935\u0932\u0902": 1054, "\u2581\u091a\u093e\u0939\u093f\u090f": 1055, "\u2581\u091c\u094d\u091e\u093e\u0924": 1056, "\u2581\u091c\u094d\u091e\u093e\u0928": 1057, "\u2581\u092e\u093e\u0930\u094d\u0917": 1058, "\u2581\u0915\u0943\u0924\u094d\u0935\u093e": 1059, "\u2581\u0907\u0924\u094d\u092f\u0924\u094d\u0930": 1060, "\u2581\u0928\u093f\u0930\u094d\u092e\u093e\u0923": 1061, "\u2581\u0924\u0941\u092e\u094d\u0939\u093e\u0930\u0947": 1062, "\u2581\u092f\u0941\u0937\u094d\u092e\u093e\u0915\u0902": 1063, "\u2581\u092e\u0939\u0924\u094d\u0935\u092a\u0942\u0930\u094d\u0923": 1064, "ol": 1065, "qu": 1066, "ur": 1067, "\u00a4\u00b0": 1068, "\u00a5\u008d": 1069, "\u0901\u091a": 1070, "\u091b\u0947": 1071, "\u091c\u094b": 1072, "\u091f\u094b": 1073, "\u0921\u093f": 1074, "\u092f\u0903": 1075, "\u0935\u0940": 1076, "\u093e\u0907": 1077, "\u094b\u093d": 1078, "\u25817": 1079, "\u2581P": 1080, "ial": 1081, "las": 1082, "\u0902\u0917\u093e": 1083, "\u0902\u091c\u0940": 1084, "\u091c\u093e\u0930": 1085, "\u0924\u094d\u092e": 1086, "\u0928\u093e\u0903": 1087, "\u092e\u0941\u0916": 1088, "\u092f\u0924\u094d": 1089, "\u0936\u094d\u0930": 1090, "\u2581(_": 1091, "\u2581\u0906\u091c": 1092, "\u2581\u0915\u0948": 1093, "\u2581\u091a\u0932": 1094, "\u2581\u091f\u0947": 1095, "\u2581\u092f\u0924": 1096, "\u2581\u0930\u093f": 1097, "\u2581\u0935\u0943": 1098, "\u2581\u0936\u0940": 1099, "\u0915\u093e\u0930\u0940": 1100, "\u0915\u093e\u0932\u0947": 1101, "\u0930\u094d\u092e\u0903": 1102, "\u093f\u0924\u094d\u092f": 1103, "\u093f\u0924\u094d\u0935": 1104, "\u2581\u0910\u0938\u0940": 1105, "\u2581\u0915\u0930\u0947": 1106, "\u2581\u0924\u0924\u0903": 1107, "\u2581\u0924\u0947\u0928": 1108, "\u2581\u0924\u0948\u092f": 1109, "\u2581\u0928\u093f\u0915": 1110, "\u2581\u092e\u092f\u093e": 1111, "\u2581\u092e\u093e\u092e": 1112, "\u2581\u092f\u0926\u093e": 1113, "\u2581\u0935\u093f\u0926": 1114, "\u2581\u0938\u0941\u0930": 1115, "ation": 1116, "\u091c\u094d\u091e\u093e\u0928": 1117, "\u0926\u093e\u0939\u0930\u0923": 1118, "\u0927\u093e\u0930\u093f\u0924": 1119, "\u2581\"\"\"\"": 1120, "\u2581name": 1121, "\u2581|\"\"\"": 1122, "\u2581\u0915\u094d\u0932\u093f": 1123, "\u2581\u091c\u093e\u0928\u093e": 1124, "\u2581\u091c\u0940\u0935\u0928": 1125, "\u2581\u0935\u093e\u0932\u093e": 1126, "\u2581\u0936\u0930\u0940\u0930": 1127, "\u2581\u0938\u091e\u094d\u091a": 1128, "\u2581\u0938\u092e\u0940\u092a": 1129, "\u2581\u0939\u092e\u0947\u0902": 1130, "\u2581\u0926\u094b\u0928\u094b\u0902": 1131, "\u2581\u0938\u0902\u092c\u0902\u0927": 1132, "\u2581\u0938\u092e\u0930\u094d\u0925": 1133, "\u2581\u0909\u092a\u092f\u094b\u0915\u094d\u0924": 1134, "\u2581\u092a\u094d\u0930\u0926\u0930\u094d\u0936": 1135, "ed": 1136, "id": 1137, "la": 1138, "\u00a5\u0087": 1139, "\u0917\u0941": 1140, "\u092b\u0940": 1141, "\u092c\u0940": 1142, "\u0942\u0926": 1143, "\u0947\u091c": 1144, "\u0947\u092f": 1145, "\u2581O": 1146, "\u2581\u0967": 1147, "\u2581\u2013": 1148, "ase": 1149, "\u0915\u0924\u093e": 1150, "\u0917\u093e\u0930": 1151, "\u091c\u0928\u0902": 1152, "\u091e\u094d\u091c": 1153, "\u091f\u0930\u094d": 1154, "\u0924\u092f\u093e": 1155, "\u0924\u0947\u0928": 1156, "\u0926\u0940\u092f": 1157, "\u092e\u0924\u093e": 1158, "\u092e\u094d\u092d": 1159, "\u0930\u094d\u0907": 1160, "\u0930\u094d\u092a": 1161, "\u0935\u0924\u094d": 1162, "\u0935\u093e\u0928": 1163, "\u093e\u0930\u0902": 1164, "\u094d\u0930\u093f": 1165, "\u2581\u0905\u0938": 1166, "\u2581\u0909\u0920": 1167, "\u2581\u0917\u0923": 1168, "\u2581\u091b\u093e": 1169, "\u2581\u091c\u0939": 1170, "\u2581\u092a\u0902": 1171, "\u2581\u092a\u0920": 1172, "\u2581\u092b\u0940": 1173, "\u2581\u092c\u0928": 1174, "\u2581\u0930\u094b": 1175, "\u2581\u0930\u094d": 1176, "\u2581\u0939\u0930": 1177, "----": 1178, "....": 1179, "\u091a\u094d\u091b\u093e": 1180, "\u0924\u094d\u0930\u0940": 1181, "\u0926\u0938\u094d\u092f": 1182, "\u092c\u0928\u094d\u0927": 1183, "\u092d\u0935\u0924\u094d": 1184, "\u092e\u094d\u0928\u093e": 1185, "\u094d\u092f\u093e\u0903": 1186, "\u094d\u092f\u093e\u092f": 1187, "\u094d\u0930\u093e\u0924": 1188, "\u2581the": 1189, "\u2581\u0907\u0926\u0902": 1190, "\u2581\u0909\u0932\u094d": 1191, "\u2581\u0910\u0938\u0947": 1192, "\u2581\u0924\u0924\u094b": 1193, "\u2581\u0926\u0942\u0930": 1194, "\u2581\u092d\u0942\u0924": 1195, "\u2581\u092e\u093e\u0902": 1196, "\u2581\u092e\u093f\u0932": 1197, "\u2581\u092f\u0939\u0940": 1198, "\u2581\u0935\u093f\u092a": 1199, "\u091f\u094b\u0930\u093f\u092f": 1200, "\u092e\u0927\u094d\u092f\u0947": 1201, "\u0935\u093e\u0932\u094b\u0902": 1202, "\u0938\u094d\u0925\u093e\u0928": 1203, "\u2581\u0909\u091a\u094d\u091a": 1204, "\u2581\u0909\u0928\u0915\u0940": 1205, "\u2581\u090f\u0924\u0924\u094d": 1206, "\u2581\u0915\u0930\u094d\u092e": 1207, "\u2581\u0917\u091a\u094d\u091b": 1208, "\u2581\u091c\u093e\u0924\u0940": 1209, "\u2581\u092a\u0941\u0928\u0903": 1210, "\u2581\u092a\u094d\u0930\u0936": 1211, "\u2581\u0935\u0930\u094d\u0937": 1212, "\u2581\u0938\u094d\u0935\u0940": 1213, "\u2581\u0939\u0938\u094d\u0924": 1214, "\u092f\u093f\u0924\u0941\u092e\u094d": 1215, "\u0936\u093f\u0915\u094d\u0937\u0923": 1216, "\u2581\u0906\u0935\u0936\u094d\u092f": 1217, "\u2581\u0924\u093f\u0937\u094d\u0920": 1218, "\u2581\u0927\u094d\u092f\u093e\u0928": 1219, "\u2581\u0928\u093f\u0936\u094d\u091a": 1220, "\u2581\u092d\u0935\u093e\u0928\u094d": 1221, "\u2581\u0930\u093e\u091c\u094d\u092f": 1222, "\u2581\u0932\u0947\u0915\u093f\u0928": 1223, "\u2581\u0938\u0902\u0926\u0947\u0936": 1224, "\u2581\u0938\u0942\u091a\u0928\u093e": 1225, "\u2581\u0915\u0941\u0930\u094d\u092e\u0903": 1226, "\u2581\u092a\u094d\u0930\u092d\u093e\u0935": 1227, "\u2581\u092d\u093e\u0930\u0924\u0940\u092f": 1228, "\u2581\u0938\u094d\u092f\u093e\u0924\u094d": 1229, "\u094d\u092f\u0941\u091f\u094b\u0930\u093f\u092f": 1230, "\u2581\u0936\u0915\u094d\u0928\u0941\u092e\u0903": 1231, "\u2581\u092f\u0941\u0937\u094d\u092e\u093e\u0928\u094d": 1232, "01": 1233, "ad": 1234, "ag": 1235, "el": 1236, "um": 1237, "\u0907\u0938": 1238, "\u0915\u0903": 1239, "\u0917\u0923": 1240, "\u0918\u093e": 1241, "\u091a\u0947": 1242, "\u0926\u092e": 1243, "\u0926\u0942": 1244, "\u0927\u0947": 1245, "\u0928\u0917": 1246, "\u092f\u093f": 1247, "\u0938\u0942": 1248, "\u0939\u0924": 1249, "\u0939\u094b": 1250, "\u093e\u092c": 1251, "\u0940\u0924": 1252, "\u0941\u092a": 1253, "\u0947\u0915": 1254, "\u094b\u0903": 1255, "\u094b\u0924": 1256, "\u25815": 1257, "\u2581N": 1258, "...": 1259, "ate": 1260, "ers": 1261, "res": 1262, "\u0915\u094d\u092f": 1263, "\u091c\u094d\u091c": 1264, "\u0924\u094d\u0925": 1265, "\u0926\u094d\u0926": 1266, "\u092a\u094d\u092f": 1267, "\u092d\u093e\u0937": 1268, "\u092e\u093e\u0938": 1269, "\u092f\u0924\u0947": 1270, "\u0930\u093f\u0915": 1271, "\u0935\u093e\u0939": 1272, "\u0935\u093f\u0915": 1273, "\u0938\u093f\u0924": 1274, "\u093e\u0926\u094d": 1275, "\u093e\u0928\u0941": 1276, "\u093e\u092a\u093f": 1277, "\u093e\u092f\u0947": 1278, "\u094d\u0932\u093e": 1279, "\u2581\u0905\u0925": 1280, "\u2581\u0905\u092d": 1281, "\u2581\u0917\u0908": 1282, "\u2581\u0918\u0930": 1283, "\u2581\u091a\u0941": 1284, "\u2581\u091b\u093f": 1285, "\u2581\u091d\u0941": 1286, "\u2581\u0921\u093f": 1287, "\u2581\u092c\u094b": 1288, "\u2581\u092e\u0902": 1289, "\u2581\u0935\u0940": 1290, "\u0919\u094d\u0917\u094d": 1291, "\u0923\u093e\u0924\u094d": 1292, "\u0926\u094d\u0927\u093f": 1293, "\u092d\u093e\u0930\u0924": 1294, "\u092f\u0928\u094d\u0924": 1295, "\u0932\u092c\u094d\u0927": 1296, "\u093e\u0928\u094d\u092f": 1297, "\u2581Con": 1298, "\u2581pro": 1299, "\u2581\u0905\u0924\u093f": 1300, "\u2581\u0906\u0926\u093f": 1301, "\u2581\u0915\u0925\u0902": 1302, "\u2581\u0915\u093f\u090f": 1303, "\u2581\u0924\u0948\u0903": 1304, "\u2581\u092a\u0921\u093c": 1305, "\u2581\u092a\u093f\u0924": 1306, "\u2581\u092a\u0941\u0928": 1307, "\u2581\u092c\u0924\u093e": 1308, "\u2581\u092c\u093e\u0930": 1309, "\u2581\u092d\u093e\u0917": 1310, "\u2581\u092e\u093e\u0930": 1311, "\u2581\u092e\u0947\u0928": 1312, "\u2581\u092f\u0924\u094b": 1313, "\u2581\u092f\u094b\u091c": 1314, "\u2581\u0932\u093e\u0917": 1315, "\u2581\u0932\u0947\u0916": 1316, "\u2581\u0935\u093e\u092e": 1317, "\u2581\u0935\u093e\u092f": 1318, "\u2581\u0935\u093f\u0928": 1319, "\u2581\u0938\u094d\u0915": 1320, "\u2581\u0939\u093e\u0925": 1321, "\u0915\u094d\u0937\u093f\u0923": 1322, "\u0919\u094d\u0915\u094d\u0937": 1323, "\u092e\u093f\u0924\u094d\u0924": 1324, "\u092f\u093f\u0937\u094d\u092f": 1325, "\u2581\u0905\u0928\u0947\u0915": 1326, "\u2581\u0905\u0930\u094d\u0925": 1327, "\u2581\u0905\u0939\u092e\u094d": 1328, "\u2581\u0906\u0926\u0947\u0936": 1329, "\u2581\u0907\u0938\u0915\u0947": 1330, "\u2581\u0907\u0938\u0938\u0947": 1331, "\u2581\u090f\u0915\u094d\u0938": 1332, "\u2581\u0915\u0930\u0924\u0940": 1333, "\u2581\u091c\u093e\u090f\u0901": 1334, "\u2581\u091c\u093e\u0928\u0947": 1335, "\u2581\u0928\u093f\u092f\u092e": 1336, "\u2581\u092a\u094d\u0930\u0923": 1337, "\u2581\u092c\u093e\u0930\u0947": 1338, "\u2581\u0932\u0947\u0915\u0930": 1339, "\u2581\u0938\u093e\u0930\u094d": 1340, "\u2581\u0938\u0942\u091a\u0940": 1341, "\u2581\u0938\u0947\u0928\u093e": 1342, "\u2581\u0915\u0930\u0923\u0940\u092f": 1343, "\u2581\u0915\u094d\u092f\u094b\u0902": 1344, "\u2581\u0924\u0948\u092f\u093e\u0930": 1345, "\u2581\u0926\u0942\u0938\u0930\u0947": 1346, "\u2581\u092d\u0935\u0924\u093e\u0902": 1347, "\u2581\u092e\u0941\u0916\u094d\u092f": 1348, "\u2581\u092f\u0941\u0926\u094d\u0927": 1349, "\u2581\u0938\u0930\u094d\u0935\u0947": 1350, "\u2581\u0938\u094d\u0925\u093e\u0928": 1351, "\u2581\u0938\u094d\u0925\u093e\u092a": 1352, "\u2581\u092a\u0930\u093f\u0923\u093e\u092e": 1353, "\u2581\u0938\u094d\u0925\u093f\u0924\u093f": 1354, "\u2581\u0905\u0938\u094d\u092e\u093e\u0915\u0902": 1355, "\u2581\u092a\u0936\u094d\u092f\u0928\u094d\u0924\u0941": 1356, "\u094d\u092f\u0941\u091f\u094b\u0930\u093f\u092f\u0932\u094d": 1357, "\u2581\u092a\u094d\u0930\u0915\u094d\u0930\u093f\u092f\u093e": 1358, "\u2581\u091f\u0919\u094d\u0915\u092f\u093f\u0924\u094d\u0935\u093e": 1359, ".0": 1360, ":,": 1361, ";\"": 1362, "?\"": 1363, "ck": 1364, "mp": 1365, "ow": 1366, "\u090f\u0938": 1367, "\u0921\u0930": 1368, "\u0921\u093e": 1369, "\u0923\u0940": 1370, "\u0925\u0947": 1371, "\u0926\u0926": 1372, "\u0926\u0930": 1373, "\u092a\u0940": 1374, "\u092f\u0939": 1375, "\u092f\u0940": 1376, "\u0930\u0903": 1377, "\u0932\u0948": 1378, "\u0935\u0930": 1379, "\u0936\u0924": 1380, "\u0936\u0928": 1381, "\u0947\u0926": 1382, "\u2581U": 1383, "age": 1384, "ile": 1385, "pok": 1386, "\u0905\u092a\u0930": 1387, "\u091a\u093f\u0924": 1388, "\u0924\u0926\u093e": 1389, "\u0924\u093e\u0903": 1390, "\u0924\u093f\u0915": 1391, "\u092a\u0941\u091f": 1392, "\u092e\u094d\u092c": 1393, "\u092f\u0924\u0941": 1394, "\u092f\u093e\u092e": 1395, "\u0930\u093e\u0908": 1396, "\u0935\u093e\u091a": 1397, "\u0937\u093e\u0902": 1398, "\u093e\u0902\u0936": 1399, "\u093e\u092e\u0940": 1400, "\u093f\u092f\u092e": 1401, "\u0941\u0930\u0941": 1402, "\u094d\u0935\u0902": 1403, "\u2581\u0905\u0928": 1404, "\u2581\u0906\u0938": 1405, "\u2581\u0918\u091f": 1406, "\u2581\u0921\u0947": 1407, "\u2581\u0924\u0924": 1408, "\u2581\u0928\u092e": 1409, "\u2581\u0928\u0948": 1410, "\u2581\u092d\u0917": 1411, "\u2581\u0932\u0918": 1412, "tion": 1413, "utor": 1414, "\u0915\u094d\u0938\u094d": 1415, "\u0917\u094d\u0930\u0940": 1416, "\u0928\u094d\u0928\u093e": 1417, "\u092a\u0930\u094d\u092f": 1418, "\u092a\u0941\u091f\u094d": 1419, "\u0932\u094d\u0921\u094d": 1420, "\u0938\u094d\u0924\u0940": 1421, "\u094d\u092f\u093e\u092a": 1422, "\u2581200": 1423, "\u2581\u0905\u0902\u0924": 1424, "\u2581\u0917\u0924\u093f": 1425, "\u2581\u0917\u092f\u0947": 1426, "\u2581\u0924\u0930\u092b": 1427, "\u2581\u0926\u093e\u092f": 1428, "\u2581\u0927\u093e\u0930": 1429, "\u2581\u0928\u093f\u0930": 1430, "\u2581\u0928\u0942\u0924": 1431, "\u2581\u092a\u0930\u0902": 1432, "\u2581\u092a\u0942\u0930": 1433, "\u2581\u092c\u0939\u093f": 1434, "\u2581\u092c\u0940\u091a": 1435, "\u2581\u092c\u0948\u0920": 1436, "\u2581\u092e\u0941\u091d": 1437, "\u2581\u0932\u0917\u0947": 1438, "\u2581\u0935\u0939\u0940": 1439, "\u2581\u0938\u0902\u092a": 1440, "\u2581\u0939\u0941\u0908": 1441, "\u0915\u094d\u0930\u093f\u092f": 1442, "\u0924\u093f\u0937\u094d\u0920": 1443, "\u092f\u093e\u092e\u093e\u0938": 1444, "\u2581\u0905\u0930\u094d\u091c": 1445, "\u2581\u0909\u0938\u0915\u093e": 1446, "\u2581\u0915\u094d\u0930\u0940": 1447, "\u2581\u0916\u0941\u0926\u093e": 1448, "\u2581\u091a\u0940\u091c\u093c": 1449, "\u2581\u091c\u093e\u0924\u093f": 1450, "\u2581\u091c\u093e\u0924\u0947": 1451, "\u2581\u0926\u0924\u094d\u0924": 1452, "\u2581\u0926\u0947\u0924\u0947": 1453, "\u2581\u0928\u094d\u092f\u0942": 1454, "\u2581\u092a\u0930\u094d\u092f": 1455, "\u2581\u092a\u094d\u0930\u0947": 1456, "\u2581\u092e\u0947\u0930\u0940": 1457, "\u2581\u0932\u093f\u092f\u093e": 1458, "\u2581\u0935\u092f\u092e\u094d": 1459, "\u2581\u0935\u0930\u094d\u0923": 1460, "\u2581\u0935\u093f\u0928\u093e": 1461, "\u2581\u0938\u092e\u093e\u0928": 1462, "\u0915\u093f\u0928\u094d\u0924\u0941": 1463, "\u2581\u0909\u0924\u094d\u0925\u093e": 1464, "\u2581\u0915\u0930\u094b\u0924\u0941": 1465, "\u2581\u091a\u093e\u0939\u0924\u0947": 1466, "\u2581\u0928\u093f\u0930\u094d\u092e": 1467, "\u2581\u0928\u0941\u0926\u0924\u0941": 1468, "\u2581\u092a\u0942\u0902\u091c\u0940": 1469, "\u2581\u092a\u0943\u0937\u094d\u0920": 1470, "\u2581\u0935\u0926\u093e\u092e\u093f": 1471, "\u2581\u0938\u0902\u092f\u094b\u091c": 1472, "\u2581\u0938\u0930\u0915\u093e\u0930": 1473, "utorial": 1474, "\u0905\u0928\u0928\u094d\u0924\u0930\u0902": 1475, "\u2581\u0909\u092a\u0932\u092c\u094d\u0927": 1476, "\u2581\u0915\u0930\u094d\u0924\u094d\u0924": 1477, "\u2581\u0915\u094d\u0930\u093f\u092f\u093e": 1478, "\u2581\u0915\u094d\u0932\u093f\u0915\u094d": 1479, "\u2581\u0915\u094d\u0937\u092e\u0924\u093e": 1480, "\u2581\u0938\u094d\u092a\u0937\u094d\u091f": 1481, "\u2581\u0907\u0924\u094d\u092f\u0947\u0924\u0947": 1482, "\u2581\u0909\u092a\u092f\u0941\u091c\u094d\u092f": 1483, "\u2581\u0936\u0915\u094d\u0928\u094b\u0924\u093f": 1484, "\u2581\u0938\u0930\u094d\u0935\u094d\u0935\u0947": 1485, "\u2581\u0938\u093e\u092e\u093e\u0928\u094d\u092f": 1486, "\u2581\u0935\u093f\u0926\u094d\u092f\u092e\u093e\u0928": 1487, "\u2581\u091f\u094d\u092f\u0941\u091f\u094b\u0930\u093f\u092f\u0932\u094d": 1488, "cc": 1489, "ig": 1490, "se": 1491, "tt": 1492, "yp": 1493, "\u0902\u0926": 1494, "\u0905\u0927": 1495, "\u0915\u0925": 1496, "\u0915\u092e": 1497, "\u0916\u0940": 1498, "\u0917\u092e": 1499, "\u0917\u0943": 1500, "\u0924\u0928": 1501, "\u0924\u092e": 1502, "\u0926\u092f": 1503, "\u092a\u0947": 1504, "\u092c\u094b": 1505, "\u092d\u094b": 1506, "\u092e\u092e": 1507, "\u0935\u0903": 1508, "\u0935\u0939": 1509, "\u0936\u0902": 1510, "\u0942\u0928": 1511, "\u0942\u0936": 1512, "\u0947\u0935": 1513, "\u094b\u0939": 1514, "\u25814": 1515, "\u25816": 1516, "\u2581e": 1517, "\u2581\u090b": 1518, "\u2581\u0937": 1519, "\u2581\u093d": 1520, "\u2581\u201c": 1521, "ind": 1522, "\u0923\u094d\u092f": 1523, "\u0924\u0924\u094d": 1524, "\u0925\u0921\u094d": 1525, "\u0926\u0947\u0935": 1526, "\u0928\u0941\u092e": 1527, "\u092a\u0930\u093e": 1528, "\u092c\u094d\u0926": 1529, "\u0930\u0902\u092d": 1530, "\u0930\u094d\u092b": 1531, "\u0930\u094d\u092d": 1532, "\u0932\u093f\u090f": 1533, "\u0935\u0930\u094d": 1534, "\u0935\u0947\u0926": 1535, "\u0937\u094d\u0915": 1536, "\u0938\u0902\u0917": 1537, "\u0939\u093e\u0901": 1538, "\u0939\u094d\u0928": 1539, "\u093e\u0902\u0924": 1540, "\u093e\u0907\u0932": 1541, "\u093e\u0926\u0943": 1542, "\u093f\u0928\u094d": 1543, "\u2581in": 1544, "\u2581is": 1545, "\u2581re": 1546, "\u2581to": 1547, "\u2581\u0915\u0942": 1548, "\u2581\u0917\u0939": 1549, "\u2581\u0917\u0943": 1550, "\u2581\u0924\u092c": 1551, "\u2581\u0924\u092e": 1552, "\u2581\u0924\u0935": 1553, "\u2581\u0925\u094b": 1554, "\u2581\u092d\u0942": 1555, "\u2581\u092d\u094b": 1556, "\u2581\u092f\u0903": 1557, "\u2581\u092f\u0926": 1558, "\u0905\u0924\u094d\u0930": 1559, "\u0915\u0930\u094d\u0924": 1560, "\u0915\u094d\u091f\u094d": 1561, "\u0926\u094d\u0935\u093e": 1562, "\u0928\u0938\u094d\u092f": 1563, "\u0928\u093f\u0930\u094d": 1564, "\u0928\u094d\u0924\u0902": 1565, "\u0928\u094d\u0926\u0947": 1566, "\u092c\u094d\u091c\u0947": 1567, "\u092e\u093e\u0928\u093f": 1568, "\u0930\u094d\u0925\u093e": 1569, "\u0932\u094d\u0915\u093f": 1570, "\u0935\u0936\u094d\u092f": 1571, "\u0935\u093e\u0930\u0902": 1572, "\u0935\u094d\u092f\u0902": 1573, "\u0938\u0940\u0924\u094d": 1574, "\u0938\u094d\u0924\u0902": 1575, "\u093e\u0924\u0941\u0902": 1576, "\u093e\u0930\u094b\u0902": 1577, "\u093f\u0924\u093e\u0903": 1578, "\u094b\u091c\u0928\u093e": 1579, "\u094d\u092f\u093e\u0902": 1580, "\u094d\u092f\u093e\u0924": 1581, "\u2581and": 1582, "\u2581\u0905\u092d\u0935": 1583, "\u2581\u0909\u0938\u0940": 1584, "\u2581\u091a\u0932\u093e": 1585, "\u2581\u091a\u093e\u0932": 1586, "\u2581\u091c\u0935\u093e": 1587, "\u2581\u0924\u0926\u094d": 1588, "\u2581\u0924\u0940\u0928": 1589, "\u2581\u0928\u093f\u0903": 1590, "\u2581\u092a\u0943\u0925": 1591, "\u2581\u092a\u0947\u0936": 1592, "\u2581\u092c\u0926\u0932": 1593, "\u2581\u092d\u093e\u0935": 1594, "\u2581\u092e\u0926\u0926": 1595, "\u2581\u092e\u0928\u0941": 1596, "\u2581\u092e\u094b\u0939": 1597, "\u2581\u0930\u094b\u0915": 1598, "\u2581\u0936\u093e\u092e": 1599, "\u2581\u0936\u0947\u092f": 1600, "\u2581\u0938\u0902\u0930": 1601, "poken": 1602, "\u092a\u0942\u0930\u094d\u0935": 1603, "\u092d\u093f\u0928\u094d\u0928": 1604, "\u092e\u093f\u091a\u094d\u091b": 1605, "\u0935\u0943\u0924\u094d\u0924": 1606, "\u093e\u0928\u094d\u0924\u093f": 1607, "\u093e\u0930\u094d\u0925\u0902": 1608, "\u2581\u0905\u0928\u0947\u0928": 1609, "\u2581\u0909\u0915\u094d\u0924": 1610, "\u2581\u0915\u0925\u093e\u0902": 1611, "\u2581\u091a\u093e\u0939\u0947": 1612, "\u2581\u091c\u093e\u0928\u0940": 1613, "\u2581\u091c\u093f\u0938\u0947": 1614, "\u2581\u0926\u093f\u0916\u093e": 1615, "\u2581\u0927\u0930\u094d\u092e": 1616, "\u2581\u092a\u0940\u091b\u0947": 1617, "\u2581\u092a\u0942\u0930\u093e": 1618, "\u2581\u0930\u0939\u0924\u0947": 1619, "\u2581\u0932\u094b\u0915\u093e": 1620, "\u2581\u0935\u093f\u0937\u092f": 1621, "\u2581\u0938\u0902\u0938\u094d": 1622, "\u2581\u0938\u0924\u094d\u092f": 1623, "\u2581\u0938\u092a\u094d\u0924": 1624, "\u2581\u0939\u094b\u0924\u0947": 1625, "\u0938\u094d\u092e\u093e\u0926\u094d": 1626, "\u0941\u0926\u094d\u0930\u093e\u092a": 1627, "\u2581\u0906\u0917\u091a\u094d\u091b": 1628, "\u2581\u0907\u0924\u094d\u092f\u093e": 1629, "\u2581\u0907\u0928\u0915\u093e\u0930": 1630, "\u2581\u0907\u0938\u0932\u093f\u090f": 1631, "\u2581\u091a\u093f\u0928\u094d\u0924": 1632, "\u2581\u0926\u0943\u0936\u094d\u092f": 1633, "\u2581\u0928\u093f\u0930\u094d\u0923": 1634, "\u2581\u092a\u0939\u0941\u0901\u091a": 1635, "\u2581\u092a\u0941\u0938\u094d\u0924": 1636, "\u2581\u092a\u0942\u0930\u094d\u0923": 1637, "\u2581\u092a\u094d\u0930\u0924\u0940": 1638, "\u2581\u092b\u093c\u093e\u0907\u0932": 1639, "\u2581\u092c\u0932\u094d\u0915\u093f": 1640, "\u2581\u0935\u0938\u094d\u0924\u0941": 1641, "\u2581\u0935\u093f\u0926\u0947\u0936": 1642, "\u2581\u0935\u093f\u0936\u0947\u0937": 1643, "\u2581\u0936\u0915\u094d\u0924\u093f": 1644, "\u2581\u0936\u093f\u0937\u094d\u092f": 1645, "\u2581\u0938\u0926\u0938\u094d\u092f": 1646, "\u2581\u0938\u093f\u0926\u094d\u0927": 1647, "\u2581\u0907\u0924\u0940\u0926\u092e\u094d": 1648, "\u2581\u0909\u0926\u093e\u0939\u0930\u0923": 1649, "\u2581\u0909\u0926\u094d\u092f\u094b\u0917": 1650, "\u2581\u091c\u093f\u0938\u092e\u0947\u0902": 1651, "\u2581\u0926\u0915\u094d\u0937\u093f\u0923": 1652, "\u2581\u0928\u093e\u0938\u094d\u0924\u093f": 1653, "\u2581\u092a\u0930\u0928\u094d\u0924\u0941": 1654, "\u2581\u0938\u094d\u0935\u091a\u094d\u091b": 1655, "\u2581\u0935\u093f\u0936\u094d\u0935\u093e\u0938": 1656, "\u2581\u0938\u0941\u0930\u0915\u094d\u0937\u093e": 1657, "\u2581\u0908\u0936\u094d\u0935\u0930\u0938\u094d\u092f": 1658, "\u2581\u0915\u093f\u091e\u094d\u091a\u093f\u0924\u094d": 1659, "\u2581\u0926\u0943\u0937\u094d\u091f\u094d\u0935\u093e": 1660, "\u2581\u092d\u0935\u093f\u0937\u094d\u092f\u0924\u093f": 1661, "\u2581\u0938\u093e\u0930\u094d\u0926\u094d\u0927\u0902": 1662, "\u2581\u0907\u0924\u094d\u092f\u0938\u094d\u092f\u094b\u092a\u0930\u093f": 1663, ".1": 1664, ".2": 1665, ":/": 1666, "bu": 1667, "eX": 1668, "ht": 1669, "lo": 1670, "th": 1671, "ud": 1672, "ux": 1673, "vi": 1674, "xt": 1675, "\u0909\u0928": 1676, "\u090f\u0915": 1677, "\u090f\u0935": 1678, "\u0915\u091f": 1679, "\u0918\u091f": 1680, "\u091a\u0930": 1681, "\u091c\u093f": 1682, "\u0923\u0902": 1683, "\u0923\u0941": 1684, "\u0923\u094b": 1685, "\u0926\u094b": 1686, "\u0927\u0940": 1687, "\u092a\u094b": 1688, "\u092d\u0917": 1689, "\u0932\u0924": 1690, "\u0936\u0941": 1691, "\u0937\u0947": 1692, "\u093e\u0927": 1693, "\u0942\u0939": 1694, "\u0948\u0930": 1695, "\u094d\u092e": 1696, "\u094d\u0932": 1697, "\u2581l": 1698, "\u2581m": 1699, "\u2581v": 1700, "\u2581\u0327": 1701, "\u2581\u0911": 1702, ".04": 1703, "ail": 1704, "ntu": 1705, "ory": 1706, "ran": 1707, "\u0902\u0921\u094b": 1708, "\u0915\u0921\u093c": 1709, "\u091a\u093e\u0932": 1710, "\u0920\u0932\u093e": 1711, "\u0924\u0941\u0902": 1712, "\u0927\u093f\u0924": 1713, "\u0928\u093e\u0925": 1714, "\u0928\u0947\u0928": 1715, "\u092a\u093e\u0928": 1716, "\u092a\u093e\u0932": 1717, "\u092c\u093e\u0926": 1718, "\u092e\u093e\u0930": 1719, "\u0930\u0923\u0902": 1720, "\u0930\u094d\u092c": 1721, "\u0932\u0928\u093e": 1722, "\u0932\u0947\u0928": 1723, "\u0935\u0924\u0940": 1724, "\u0935\u093f\u0936": 1725, "\u0937\u094d\u092e": 1726, "\u0938\u0947\u0928": 1727, "\u0939\u0930\u093e": 1728, "\u0939\u093e\u0930": 1729, "\u093e\u0924\u093e": 1730, "\u093e\u0932\u094d": 1731, "\u093f\u0924\u0903": 1732, "\u093f\u092f\u0947": 1733, "\u0947\u0938\u094d": 1734, "\u0948\u0928\u094d": 1735, "\u094c\u0928\u094d": 1736, "\u2581\"(": 1737, "\u2581(1": 1738, "\u25811.": 1739, "\u2581La": 1740, "\u2581St": 1741, "\u2581\u0906\u0902": 1742, "\u2581\u0906\u0936": 1743, "\u2581\u0907\u0902": 1744, "\u2581\u0915\u0935": 1745, "\u2581\u091f\u0940": 1746, "\u2581\u0924\u0943": 1747, "\u2581\u0926\u0930": 1748, "\u2581\u0926\u0936": 1749, "\u2581\u0928\u0908": 1750, "\u2581\u0928\u0935": 1751, "\u2581\u0928\u094c": 1752, "\u2581\u092a\u094c": 1753, "\u2581\u092b\u093e": 1754, "\u2581\u092c\u091a": 1755, "\u2581\u092c\u0938": 1756, "\u2581\u0930\u091a": 1757, "\u2581\u0930\u092c": 1758, "\u2581\u0932\u0902": 1759, "\u2581\u0936\u0943": 1760, "inux": 1761, "lash": 1762, "\u0915\u0938\u094d\u092f": 1763, "\u0917\u094d\u0930\u0939": 1764, "\u091a\u094d\u091a\u0947": 1765, "\u091f\u093f\u0902\u0917": 1766, "\u0921\u093f\u092f\u094b": 1767, "\u0924\u0938\u094d\u092f": 1768, "\u0924\u0941\u092e\u094d": 1769, "\u0924\u094d\u092e\u093e": 1770, "\u0928\u093f\u092f\u093e": 1771, "\u092a\u094d\u0930\u093e": 1772, "\u092d\u094d\u092f\u0902": 1773, "\u092f\u094b\u091c\u0928": 1774, "\u0930\u093f\u092f\u0947": 1775, "\u0930\u094d\u0924\u093f": 1776, "\u0936\u093e\u0938\u0928": 1777, "\u0939\u093f\u0932\u093e": 1778, "\u093e\u0930\u094d\u0925": 1779, "\u0942\u0902\u0917\u093e": 1780, "\u094b\u0915\u0928\u094d": 1781, "\u2581\u0905\u092a\u0930": 1782, "\u2581\u0905\u0932\u0917": 1783, "\u2581\u0906\u0917\u0947": 1784, "\u2581\u0906\u092f\u0924": 1785, "\u2581\u0914\u091f\u094d": 1786, "\u2581\u0915\u092d\u0940": 1787, "\u2581\u0915\u0943\u092a": 1788, "\u2581\u091a\u092f\u0928": 1789, "\u2581\u091c\u093e\u0932": 1790, "\u2581\u0924\u093e\u0935": 1791, "\u2581\u0926\u0943\u0922": 1792, "\u2581\u0926\u0947\u0902": 1793, "\u2581\u0926\u094c\u0930": 1794, "\u2581\u0926\u094d\u0930": 1795, "\u2581\u0927\u094d\u0935": 1796, "\u2581\u0928\u093e\u0917": 1797, "\u2581\u0928\u093f\u091c": 1798, "\u2581\u0930\u093e\u092e": 1799, "\u2581\u0932\u0917\u093e": 1800, "\u2581\u0932\u093e\u090f": 1801, "\u2581\u0936\u093f\u0915": 1802, "\u2581\u0938\u0902\u0918": 1803, "\u2581\u0938\u0915\u0947": 1804, "\u2581\u0938\u0919\u094d": 1805, "\u2581\u0938\u0928\u094d": 1806, "\u2581\u0938\u093f\u0902": 1807, "\u2581\u0938\u0947\u0935": 1808, "\u2581\u0938\u094d\u091f": 1809, "\u2581\u0939\u093e\u0932": 1810, "\u2581\u0939\u094b\u0902": 1811, "buntu": 1812, "\u0915\u094d\u0937\u093f\u0924": 1813, "\u0924\u0902\u0924\u094d\u0930": 1814, "\u092f\u0928\u094d\u0924\u093f": 1815, "\u0930\u094d\u0924\u094d\u0924": 1816, "\u0930\u094d\u0925\u093f\u0915": 1817, "\u0937\u094d\u092f\u0924\u093f": 1818, "\u0938\u094d\u0924\u093e\u0928": 1819, "\u0938\u094d\u0924\u093e\u0935": 1820, "\u0938\u094d\u0925\u094d\u092f": 1821, "\u0941\u0926\u094d\u0930\u093e": 1822, "\u094d\u0930\u093e\u0924\u0943": 1823, "\u094d\u0932\u093e\u0924\u093f": 1824, "\u2581file": 1825, "\u2581\u0905\u0925\u0935\u093e": 1826, "\u2581\u0905\u0927\u094d\u092f": 1827, "\u2581\u0905\u0928\u094d\u0924": 1828, "\u2581\u0906\u092a\u0915\u094b": 1829, "\u2581\u0906\u0930\u0902\u092d": 1830, "\u2581\u0909\u0928\u0938\u0947": 1831, "\u2581\u0915\u093e\u092b\u0940": 1832, "\u2581\u091a\u093f\u0928\u094b": 1833, "\u2581\u091b\u094b\u0921\u093c": 1834, "\u2581\u091c\u0948\u0938\u093e": 1835, "\u2581\u091c\u094b\u0921\u093c": 1836, "\u2581\u0926\u0947\u0928\u093e": 1837, "\u2581\u0927\u093e\u0930\u093e": 1838, "\u2581\u0928\u0940\u0924\u093f": 1839, "\u2581\u092a\u091e\u094d\u091a": 1840, "\u2581\u092a\u0924\u094d\u0930": 1841, "\u2581\u092a\u0930\u093f\u091a": 1842, "\u2581\u092a\u0942\u0930\u0940": 1843, "\u2581\u092a\u0948\u0926\u093e": 1844, "\u2581\u092e\u0927\u094d\u092f": 1845, "\u2581\u092f\u0939\u093e\u0902": 1846, "\u2581\u0930\u0915\u094d\u0924": 1847, "\u2581\u0935\u093e\u0932\u0940": 1848, "\u2581\u0936\u0947\u092f\u0930": 1849, "\u2581\u0938\u0915\u0924\u0940": 1850, "\u2581\u0938\u0919\u094d\u0917": 1851, "\u2581\u0938\u092c\u0938\u0947": 1852, "\u2581\u0938\u0939\u093e\u092f": 1853, "\u2581\u0938\u0941\u0928\u093e": 1854, "\u2581\u0938\u0947\u0935\u093e": 1855, "\u2581\u0938\u094d\u092e\u0903": 1856, "\u2581\u0939\u0947\u0924\u0941": 1857, "\u092e\u093f\u0924\u094d\u0924\u0902": 1858, "\u0938\u094d\u092e\u093e\u0915\u0902": 1859, "\u0941\u092e\u093f\u091a\u094d\u091b": 1860, "\u094d\u0930\u0940\u0937\u094d\u091f": 1861, "\u2581slash": 1862, "\u2581\u0905\u092d\u094d\u092f\u093e": 1863, "\u2581\u0906\u0938\u0940\u0924\u094d": 1864, "\u2581\u0907\u0938\u092e\u0947\u0902": 1865, "\u2581\u0909\u0926\u094d\u0918\u093e": 1866, "\u2581\u091c\u093e\u092f\u0924\u0947": 1867, "\u2581\u091d\u0941\u0920\u0932\u093e": 1868, "\u2581\u092a\u0943\u0937\u094d\u091f": 1869, "\u2581\u092a\u094d\u0930\u0925\u092e": 1870, "\u2581\u092a\u094d\u0930\u092d\u0941": 1871, "\u2581\u092a\u094d\u0930\u093e\u0930": 1872, "\u2581\u092e\u0939\u093f\u0932\u093e": 1873, "\u2581\u092e\u093e\u092e\u0932\u0947": 1874, "\u2581\u092e\u0941\u0915\u094d\u0924": 1875, "\u2581\u092f\u093e\u0935\u0924\u094d": 1876, "\u2581\u092f\u0940\u0936\u0941\u0903": 1877, "\u2581\u092f\u094b\u0917\u094d\u092f": 1878, "\u2581\u0935\u093e\u0938\u094d\u0924": 1879, "\u2581\u0935\u093f\u0902\u0921\u094b": 1880, "\u2581\u0935\u093f\u0935\u0930\u0923": 1881, "\u2581\u0935\u093f\u0935\u093f\u0927": 1882, "\u2581\u0936\u093e\u092e\u093f\u0932": 1883, "\u2581\u0938\u093e\u092e\u0928\u0947": 1884, "\u2581\u0938\u093f\u0930\u094d\u092b": 1885, "\u2581\u0939\u092e\u093e\u0930\u0940": 1886, "\u0924\u094d\u0930\u093e\u0923\u093e\u0902": 1887, "\u0930\u093f\u092f\u0947\u092c\u0932\u094d": 1888, "\u0937\u094d\u091f\u094d\u0930\u0940\u092f": 1889, "\u2581\u091a\u093f\u0924\u094d\u0935\u093e": 1890, "\u2581\u0928\u093f\u0937\u094d\u0915\u093e": 1891, "\u2581\u092a\u0930\u093f\u0935\u093e\u0930": 1892, "\u2581\u092a\u094d\u0930\u0927\u093e\u0928": 1893, "\u2581\u092a\u094d\u0930\u092e\u093e\u0923": 1894, "\u2581\u092b\u0940\u0932\u094d\u0921\u094d": 1895, "\u2581\u0938\u092e\u0938\u094d\u092f\u093e": 1896, ",\"\"\"\"\"\"\"": 1897, "\u092c\u094d\u091c\u0947\u0915\u094d\u091f\u094d": 1898, "\u0932\u093f\u092e\u0947\u0923\u094d\u091f\u094d": 1899, "\u2581\u0905\u0938\u094d\u092e\u093f\u0928\u094d": 1900, "\u2581\u0924\u0938\u094d\u092e\u093f\u0928\u094d": 1901, "\u2581\u0926\u0943\u0937\u094d\u091f\u0941\u0902": 1902, "\u2581\u092a\u094d\u0930\u0915\u0932\u094d\u092a": 1903, "\u2581\u092a\u094d\u0930\u093e\u0930\u094d\u0925": 1904, "\u2581\u0938\u091e\u094d\u091a\u093f\u0915\u093e": 1905, "\u2581\u0905\u0938\u094d\u092e\u093e\u092d\u093f\u0903": 1906, "\u2581\u0917\u0943\u0939\u094d\u0932\u093e\u0924\u093f": 1907, "\u2581\u0915\u0941\u0930\u094d\u0935\u0928\u094d\u0924\u093f": 1908, "\u2581\u092a\u094d\u0930\u0936\u093f\u0915\u094d\u0937\u0923": 1909, "ew": 1910, "ha": 1911, "ib": 1912, "ul": 1913, "ww": 1914, "\u00a4\u00a1": 1915, "\u090f\u092e": 1916, "\u0917\u093f": 1917, "\u0917\u094b": 1918, "\u091a\u0940": 1919, "\u091f\u0935": 1920, "\u0927\u0928": 1921, "\u092d\u0930": 1922, "\u092e\u0928": 1923, "\u0935\u0924": 1924, "\u0936\u0947": 1925, "\u0938\u0932": 1926, "\u0938\u0939": 1927, "\u0938\u094b": 1928, "\u0939\u0926": 1929, "\u0940\u0915": 1930, "\u094c\u092e": 1931, "\u25819": 1932, "\u2581G": 1933, "\u2581H": 1934, "\u2581V": 1935, "\u2581g": 1936, "\u2581i": 1937, "://": 1938, "TeX": 1939, "ary": 1940, "ess": 1941, "est": 1942, "ist": 1943, "org": 1944, "our": 1945, "out": 1946, "ttp": 1947, "\u0907\u0926\u0902": 1948, "\u0907\u0928\u094d": 1949, "\u0915\u0930\u094b": 1950, "\u0916\u094d\u092f": 1951, "\u091c\u093c\u0947": 1952, "\u091c\u0940\u0935": 1953, "\u0921\u0947\u0902": 1954, "\u0926\u093f\u0928": 1955, "\u0928\u092e\u094d": 1956, "\u0928\u093e\u092e": 1957, "\u0928\u0940\u092f": 1958, "\u0928\u094d\u0925": 1959, "\u092a\u093e\u0930": 1960, "\u092c\u094d\u0930": 1961, "\u092e\u0924\u093f": 1962, "\u092e\u0947\u0930": 1963, "\u092f\u0928\u094d": 1964, "\u092f\u093e\u0932": 1965, "\u092f\u0947\u0924": 1966, "\u0930\u0942\u0930": 1967, "\u0930\u094d\u0918": 1968, "\u0930\u094d\u091a": 1969, "\u0930\u094d\u0926": 1970, "\u0932\u0924\u093e": 1971, "\u0932\u093f\u0916": 1972, "\u0932\u093f\u0924": 1973, "\u0936\u0928\u094d": 1974, "\u0936\u094d\u0924": 1975, "\u0938\u094d\u0930": 1976, "\u093f\u0915\u0940": 1977, "\u093f\u0924\u0947": 1978, "\u093f\u0928\u0903": 1979, "\u093f\u0928\u093f": 1980, "\u093f\u0928\u0940": 1981, "\u0948\u0932\u094d": 1982, "\u0964\"\"": 1983, "\u258116": 1984, "\u2581of": 1985, "\u2581qu": 1986, "\u2581\u0327\u00e0": 1987, "\u2581\u0905\u0917": 1988, "\u2581\u0906\u0928": 1989, "\u2581\u0916\u0941": 1990, "\u2581\u0916\u094b": 1991, "\u2581\u0917\u093c": 1992, "\u2581\u091a\u094c": 1993, "\u2581\u091c\u0941": 1994, "\u2581\u091f\u0948": 1995, "\u2581\u0924\u0903": 1996, "\u2581\u0924\u0940": 1997, "\u2581\u092d\u092f": 1998, "\u2581\u092d\u0947": 1999, "\u2581\u0930\u0941": 2000, "\u2581\u0936\u0948": 2001, "\u2581\u0938\u0948": 2002, "ment": 2003, "\u0915\u0943\u0924\u0947": 2004, "\u0915\u094d\u0937\u092e": 2005, "\u0915\u094d\u0937\u0930": 2006, "\u0915\u094d\u0937\u0940": 2007, "\u091c\u093c\u093e\u092c": 2008, "\u0923\u094d\u0921\u094d": 2009, "\u0924\u0940\u0924\u093f": 2010, "\u0924\u094d\u0924\u093e": 2011, "\u0924\u094d\u0930\u0902": 2012, "\u0926\u093e\u0928\u0940": 2013, "\u0927\u093e\u0930\u093e": 2014, "\u0928\u0917\u0930\u0947": 2015, "\u0928\u094d\u0926\u093f": 2016, "\u092a\u0936\u094d\u091a": 2017, "\u092e\u093e\u0928\u0940": 2018, "\u092e\u093f\u0926\u0902": 2019, "\u092e\u0947\u0915\u0902": 2020, "\u092e\u094d\u0928\u0903": 2021, "\u092e\u094d\u092c\u0930": 2022, "\u092f\u093e\u092e\u0903": 2023, "\u0935\u0926\u0924\u094d": 2024, "\u0935\u0930\u094d\u0937": 2025, "\u0935\u093e\u0932\u0947": 2026, "\u0936\u093f\u0915\u093e": 2027, "\u0937\u094d\u091f\u093f": 2028, "\u093e\u0902\u0924\u093f": 2029, "\u093e\u0928\u094d\u0935": 2030, "\u093f\u0915\u094d\u0924": 2031, "\u093f\u0928\u094d\u0935": 2032, "\u093f\u092f\u0924\u0947": 2033, "\u0947\u0936\u094d\u0935": 2034, "\u0947\u0937\u093e\u092e": 2035, "\u2581con": 2036, "\u2581dot": 2037, "\u2581str": 2038, "\u2581\u0905\u0902\u0917": 2039, "\u2581\u0905\u092a\u0947": 2040, "\u2581\u0906\u092f\u093e": 2041, "\u2581\u0915\u0926\u093e": 2042, "\u2581\u0915\u0928\u094d": 2043, "\u2581\u0915\u0941\u0930": 2044, "\u2581\u0915\u0947\u0902": 2045, "\u2581\u0915\u0947\u0928": 2046, "\u2581\u0917\u0941\u0923": 2047, "\u2581\u0917\u0941\u0930": 2048, "\u2581\u091a\u0924\u0941": 2049, "\u2581\u091b\u0935\u093f": 2050, "\u2581\u091c\u093e\u0902": 2051, "\u2581\u0924\u0928\u094d": 2052, "\u2581\u0924\u094d\u092f": 2053, "\u2581\u0924\u094d\u0930": 2054, "\u2581\u0928\u0939\u093f": 2055, "\u2581\u092c\u094d\u0930": 2056, "\u2581\u092e\u0917\u0930": 2057, "\u2581\u092e\u0943\u0924": 2058, "\u2581\u092f\u0947\u0928": 2059, "\u2581\u0930\u0902\u0917": 2060, "\u2581\u0930\u094d\u0935": 2061, "\u2581\u0932\u093e\u092d": 2062, "\u2581\u0932\u0947\u0902": 2063, "\u2581\u0935\u092f\u092e": 2064, "\u2581\u0935\u093e\u0930": 2065, "\u2581\u0935\u093f\u0927": 2066, "\u2581\u0936\u093f\u0930": 2067, "\u2581\u0938\u092e\u0941": 2068, "\u2581\u0938\u0930\u0932": 2069, "\u2581\u0938\u0948\u0928": 2070, "\u0915\u094d\u091f\u0930\u094d": 2071, "\u0919\u094d\u0915\u094d\u0924": 2072, "\u0928\u093f\u0936\u094d\u091a": 2073, "\u0928\u094d\u0924\u094d\u0930": 2074, "\u092a\u094d\u0930\u0924\u093f": 2075, "\u092e\u093e\u0930\u094d\u0917": 2076, "\u092e\u094d\u092a\u094d\u0930": 2077, "\u0935\u093f\u0924\u094d\u0930": 2078, "\u0937\u094d\u091f\u0941\u0902": 2079, "\u0938\u094d\u092e\u093f\u0928": 2080, "\u0938\u094d\u092f\u0924\u093f": 2081, "\u094b\u0932\u094d\u0921\u0930": 2082, "\u094d\u0930\u093e\u0923\u093f": 2083, "\u2581http": 2084, "\u2581\u0905\u091a\u094d\u091b": 2085, "\u2581\u0905\u0924\u094d\u092f": 2086, "\u2581\u0905\u0938\u094d\u092e": 2087, "\u2581\u0906\u092a\u0915\u0947": 2088, "\u2581\u0909\u0926\u094d\u092f": 2089, "\u2581\u0909\u0928\u0915\u094b": 2090, "\u2581\u0915\u093f\u092e\u094d": 2091, "\u2581\u0915\u093f\u092f\u0947": 2092, "\u2581\u0915\u0941\u0930\u0941": 2093, "\u2581\u0915\u094d\u0932\u093e": 2094, "\u2581\u091a\u0915\u094d\u0930": 2095, "\u2581\u091c\u0935\u093e\u092c": 2096, "\u2581\u0921\u094c\u0928\u094d": 2097, "\u2581\u0924\u0928\u094d\u0928": 2098, "\u2581\u0926\u0941\u0930\u094d": 2099, "\u2581\u0926\u0947\u0924\u093e": 2100, "\u2581\u092a\u0939\u0941\u0902": 2101, "\u2581\u092a\u0942\u0930\u0947": 2102, "\u2581\u092c\u0921\u093c\u093e": 2103, "\u2581\u092c\u093e\u0939\u0930": 2104, "\u2581\u092d\u0935\u0926\u094d": 2105, "\u2581\u092d\u093e\u0937\u093e": 2106, "\u2581\u092e\u093e\u0928\u093e": 2107, "\u2581\u092e\u0941\u091d\u0947": 2108, "\u2581\u092e\u0942\u0938\u093e": 2109, "\u2581\u092e\u0947\u0930\u093e": 2110, "\u2581\u092e\u0947\u0930\u0947": 2111, "\u2581\u092f\u0938\u094d\u092f": 2112, "\u2581\u0930\u0939\u0924\u0940": 2113, "\u2581\u0930\u093e\u091c\u093e": 2114, "\u2581\u0932\u0917\u092d\u0917": 2115, "\u2581\u0932\u093e\u0917\u0942": 2116, "\u2581\u0935\u0915\u094d\u0924": 2117, "\u2581\u0938\u0928\u094d\u0924": 2118, "\u2581\u0938\u092e\u091d\u094c": 2119, "\u2581\u0938\u092e\u094d\u092f": 2120, "\u2581\u0938\u093f\u0935\u093e": 2121, "\u2581\u0938\u0940\u0927\u0947": 2122, "\u2581\u0938\u094d\u0924\u0930": 2123, "lation": 2124, "\u0938\u094d\u0935\u0930\u0942\u092a": 2125, "\u2581Linux": 2126, "\u2581\u0905\u0928\u0941\u092d\u0935": 2127, "\u2581\u0905\u0930\u094d\u0925\u093e": 2128, "\u2581\u0905\u0935\u0932\u094b\u0915": 2129, "\u2581\u090f\u0924\u093e\u0926\u0943": 2130, "\u2581\u0915\u0943\u0937\u094d\u0923": 2131, "\u2581\u0915\u094b\u0930\u094d\u0907": 2132, "\u2581\u091a\u093f\u0928\u094d\u0935": 2133, "\u2581\u091c\u093e\u0928\u0924\u093e": 2134, "\u2581\u091c\u093f\u0938\u0915\u0947": 2135, "\u2581\u0924\u0941\u092e\u092a\u0930": 2136, "\u2581\u0924\u0941\u092e\u0938\u0947": 2137, "\u2581\u0926\u0947\u0916\u0924\u0947": 2138, "\u2581\u0926\u094c\u0930\u093e\u0928": 2139, "\u2581\u092a\u0941\u0924\u094d\u0930": 2140, "\u2581\u092a\u094d\u0930\u0915\u091f": 2141, "\u2581\u092a\u094d\u0930\u093e\u0923": 2142, "\u2581\u092a\u094d\u0930\u0947\u0937": 2143, "\u2581\u092d\u0935\u0947\u0924\u094d": 2144, "\u2581\u092d\u094d\u0930\u093e\u092e": 2145, "\u2581\u092e\u093e\u0927\u094d\u092f": 2146, "\u2581\u092e\u0947\u0925\u0921\u094d": 2147, "\u2581\u0930\u0915\u094d\u0937\u093e": 2148, "\u2581\u0938\u092e\u0915\u094d\u0937": 2149, "\u2581\u0938\u092e\u093f\u0924\u093f": 2150, "\u2581\u0938\u092e\u0940\u092a\u0947": 2151, "\u2581\u0938\u094d\u0935\u092f\u0902": 2152, "\u093f\u0924\u0935\u0928\u094d\u0924\u0903": 2153, "\u2581Ubuntu": 2154, "\u2581\u0907\u0926\u093e\u0928\u0940\u0902": 2155, "\u2581\u0909\u0926\u094d\u0918\u093e\u091f": 2156, "\u2581\u0909\u0932\u094d\u0932\u0947\u0916": 2157, "\u2581\u090f\u0915\u094d\u0938\u093f\u0915": 2158, "\u2581\u0928\u093f\u0930\u094d\u0923\u092f": 2159, "\u2581\u092a\u094d\u0930\u0915\u093e\u0936": 2160, "\u2581\u092e\u0941\u0926\u094d\u0930\u093e": 2161, "\u2581\u092e\u0947\u0928\u094d\u092f\u0942": 2162, "\u2581\u0935\u094d\u092f\u0915\u094d\u0924": 2163, "\u2581\u0938\u0902\u0916\u094d\u092f\u093e": 2164, "\u2581\u0938\u0939\u093e\u092f\u0924\u093e": 2165, "\u2581\u0938\u094d\u092a\u0947\u0938\u094d": 2166, "\u2581\u0905\u0928\u0928\u094d\u0924\u0930\u0902": 2167, "\u2581\u0915\u094d\u092f\u094b\u0902\u0915\u093f": 2168, "\u2581\u0916\u094d\u0930\u0940\u0937\u094d\u091f": 2169, "\u2581\u091d\u0941\u0920\u0932\u093e\u092f\u093e": 2170, "\u2581\u0924\u0938\u094d\u092e\u093e\u0924\u094d": 2171, "\u2581\u092a\u0936\u094d\u091a\u093e\u0926\u094d": 2172, "\u2581\u092a\u0936\u094d\u092f\u093e\u092e\u0903": 2173, "\u2581\u092a\u094d\u0930\u0923\u093e\u0932\u0940": 2174, "\u2581\u092e\u0941\u0926\u094d\u0930\u093e\u092a": 2175, "\u2581\u0936\u0915\u094d\u0928\u094b\u092e\u093f": 2176, "\u2581\u092a\u094d\u0930\u0924\u094d\u092f\u0947\u0915": 2177, "\u2581\u0935\u094d\u092f\u0935\u0938\u094d\u0925\u093e": 2178, "\u2581\u0938\u092e\u094d\u092a\u0942\u0930\u094d\u0923": 2179, "\u2581\u0938\u094d\u0935\u091a\u094d\u091b\u0924\u093e": 2180, "\u2581\u0909\u092a\u092f\u094b\u0915\u094d\u0924\u0941\u0902": 2181, "\u2581\u0913\u092c\u094d\u091c\u0947\u0915\u094d\u091f\u094d": 2182, "\u2581\u091a\u093f\u0928\u094d\u0935\u0928\u094d\u0924\u0941": 2183, "\u2581\u0935\u0947\u0930\u093f\u092f\u0947\u092c\u0932\u094d": 2184, "\u2581\u0938\u094d\u0935\u093e\u0938\u094d\u0925\u094d\u092f": 2185, "\u2581\u092a\u0930\u093f\u0935\u0930\u094d\u0924\u092f\u093f\u0924\u0941\u0902": 2186, "\u2581\u092a\u094d\u0930\u093e\u092a\u094d\u0924\u0935\u0928\u094d\u0924\u0903": 2187, "80": 2188, "In": 2189, "av": 2190, "dd": 2191, "ea": 2192, "fa": 2193, "ii": 2194, "li": 2195, "ly": 2196, "up": 2197, "\u00a4\u0082": 2198, "\u00a5\u0080": 2199, "\u0902\u0936": 2200, "\u0902\u0938": 2201, "\u0909\u0938": 2202, "\u090f\u0924": 2203, "\u091b\u093e": 2204, "\u091c\u092c": 2205, "\u091c\u0941": 2206, "\u0923\u0928": 2207, "\u0923\u0947": 2208, "\u0924\u0935": 2209, "\u0928\u0930": 2210, "\u092a\u0902": 2211, "\u092a\u0928": 2212, "\u092c\u0941": 2213, "\u092e\u0915": 2214, "\u092e\u0939": 2215, "\u092e\u0942": 2216, "\u0930\u0942": 2217, "\u0935\u094b": 2218, "\u0937\u0923": 2219, "\u0937\u093f": 2220, "\u093e\u091c": 2221, "\u0942\u092e": 2222, "\u0947\u0903": 2223, "\u0947\u091f": 2224, "\u094d\u0936": 2225, "\u094d\u0938": 2226, "\u25810": 2227, "\u2581=": 2228, "\u2581K": 2229, "\u2581u": 2230, "ert": 2231, "erv": 2232, "har": 2233, "hen": 2234, "isp": 2235, "lay": 2236, "ood": 2237, "umb": 2238, "\u0905\u0924\u0903": 2239, "\u0905\u0928\u093e": 2240, "\u0915\u093e\u0924": 2241, "\u0917\u0924\u093f": 2242, "\u0918\u094d\u0930": 2243, "\u0919\u094d\u0918": 2244, "\u091a\u0940\u0928": 2245, "\u091c\u0930\u093e": 2246, "\u0923\u094d\u091f": 2247, "\u0924\u093e\u092e": 2248, "\u0927\u093e\u0908": 2249, "\u0927\u0941\u0928": 2250, "\u092a\u0941\u0930": 2251, "\u092b\u093f\u0930": 2252, "\u092c\u093e\u0928": 2253, "\u092c\u093e\u0930": 2254, "\u092e\u0928\u0941": 2255, "\u092e\u0947\u0928": 2256, "\u092e\u094d\u092a": 2257, "\u092f\u0926\u093f": 2258, "\u092f\u093e\u0938": 2259, "\u0930\u093e\u092c": 2260, "\u0930\u093f\u0924": 2261, "\u0930\u0940\u092c": 2262, "\u0930\u0947\u0923": 2263, "\u0932\u093f\u0915": 2264, "\u0938\u0930\u094d": 2265, "\u0939\u094d\u092f": 2266, "\u093e\u0935\u093f": 2267, "\u093f\u0915\u0902": 2268, "\u093f\u092e\u094b": 2269, "\u0947\u0928\u0935": 2270, "\u0947\u0936\u0915": 2271, "\u094b\u0917\u0947": 2272, "\u094b\u0930\u094d": 2273, "\u094d\u0930\u091c": 2274, "\u258112": 2275, "\u25812.": 2276, "\u258120": 2277, "\u25813.": 2278, "\u2581Re": 2279, "\u2581Sy": 2280, "\u2581be": 2281, "\u2581do": 2282, "\u2581\u0905\u0939": 2283, "\u2581\u0906\u0908": 2284, "\u2581\u0906\u090f": 2285, "\u2581\u0906\u0915": 2286, "\u2581\u0907\u0935": 2287, "\u2581\u090f\u0937": 2288, "\u2581\u0915\u094c": 2289, "\u2581\u0918\u0941": 2290, "\u2581\u0921\u0930": 2291, "\u2581\u0921\u0940": 2292, "\u2581\u0924\u0925": 2293, "\u2581\u0924\u0942": 2294, "\u2581\u092d\u0941": 2295, "\u2581\u092e\u0948": 2296, "\u2581\u092e\u0949": 2297, "\u2581\u092f\u093f": 2298, "\u2581\u092f\u094c": 2299, "\u2581\u0930\u0940": 2300, "\u2581\u0935\u091c": 2301, "\u2581\u0936\u0915": 2302, "\u2581\u0939\u0943": 2303, "\u2581\u0967\u096f": 2304, "ance": 2305, "cher": 2306, "rans": 2307, "\u0905\u092a\u0930\u0902": 2308, "\u0915\u093e\u0928\u093f": 2309, "\u0915\u094d\u0915\u093e": 2310, "\u0915\u094d\u0932\u093f": 2311, "\u0917\u091a\u094d\u091b": 2312, "\u0917\u0924\u092e\u094d": 2313, "\u0919\u094d\u0915\u094d": 2314, "\u091a\u094d\u091a\u093e": 2315, "\u091c\u094d\u091e\u093e": 2316, "\u091f\u094d\u091f\u0940": 2317, "\u0924\u0947\u0937\u0941": 2318, "\u0924\u094d\u0925\u093e": 2319, "\u0924\u094d\u0930\u0923": 2320, "\u0927\u093e\u0930\u0923": 2321, "\u0927\u093f\u0915\u0902": 2322, "\u0927\u0941\u0928\u093e": 2323, "\u0928\u092f\u094b\u0903": 2324, "\u0928\u093e\u090f\u0902": 2325, "\u092a\u0924\u094d\u0930": 2326, "\u092a\u0928\u094d\u0928": 2327, "\u092a\u0936\u094d\u092f": 2328, "\u092d\u093e\u0917\u0902": 2329, "\u0930\u094d\u0917\u0924": 2330, "\u0932\u093e\u0935\u093e": 2331, "\u0932\u094d\u092a\u093e": 2332, "\u0935\u0938\u093e\u092f": 2333, "\u0935\u093f\u0927\u093e": 2334, "\u0937\u094d\u091f\u093e": 2335, "\u0938\u0928\u092e\u094d": 2336, "\u0938\u092e\u092f\u0947": 2337, "\u0938\u093e\u0930\u0947": 2338, "\u0938\u094d\u092a\u0930": 2339, "\u0939\u093e\u0930\u0947": 2340, "\u093e\u091c\u093f\u0915": 2341, "\u093e\u0938\u094d\u092f": 2342, "\u093f\u0915\u093e\u0903": 2343, "\u093f\u0937\u094d\u091f": 2344, "\u094d\u092f\u093e\u091c": 2345, "\u2581Set": 2346, "\u2581com": 2347, "\u2581\u0905\u092d\u093f": 2348, "\u2581\u0905\u0930\u0947": 2349, "\u2581\u0906\u0938\u0928": 2350, "\u2581\u0907\u0924\u094b": 2351, "\u2581\u0909\u092a\u093e": 2352, "\u2581\u090a\u092a\u0930": 2353, "\u2581\u090f\u0937\u093e": 2354, "\u2581\u0915\u0925\u0928": 2355, "\u2581\u0915\u092e\u093e": 2356, "\u2581\u0915\u0930\u093e": 2357, "\u2581\u0917\u0932\u0924": 2358, "\u2581\u0917\u0940\u0924": 2359, "\u2581\u091a\u093e\u0930": 2360, "\u2581\u091c\u092e\u093e": 2361, "\u2581\u0921\u093e\u0915": 2362, "\u2581\u0922\u0902\u0917": 2363, "\u2581\u0924\u0939\u0924": 2364, "\u2581\u0926\u0947\u0935": 2365, "\u2581\u092a\u0930\u0940": 2366, "\u2581\u092a\u093e\u0926": 2367, "\u2581\u092a\u093e\u0932": 2368, "\u2581\u092a\u0948\u0930": 2369, "\u2581\u092c\u0943\u0939": 2370, "\u2581\u092d\u0902\u0921": 2371, "\u2581\u092d\u0947\u091c": 2372, "\u2581\u092e\u092f\u093f": 2373, "\u2581\u092e\u0939\u093e": 2374, "\u2581\u092e\u0939\u0940": 2375, "\u2581\u092e\u093e\u0924": 2376, "\u2581\u092f\u093e\u0924": 2377, "\u2581\u092f\u094b\u0939": 2378, "\u2581\u0930\u0916\u093e": 2379, "\u2581\u0930\u0939\u0940": 2380, "\u2581\u0930\u094d\u092e": 2381, "\u2581\u0932\u0918\u0941": 2382, "\u2581\u0935\u093f\u0924": 2383, "\u2581\u0938\u092c\u094d": 2384, "\u2581\u0938\u093e\u0902": 2385, "\u2581\u0938\u093e\u0939": 2386, "\u2581\u0938\u094b\u093d": 2387, "\u2581\u0939\u0942\u0902": 2388, "\u0915\u0930\u094d\u0924\u093e": 2389, "\u0915\u093e\u0930\u094d\u092f": 2390, "\u0915\u0943\u0924\u093f\u0915": 2391, "\u0915\u0943\u0937\u094d\u091f": 2392, "\u091a\u093f\u0924\u094d\u0930": 2393, "\u091f\u0935\u0930\u094d\u0915": 2394, "\u0924\u0940\u092f\u093e\u0902": 2395, "\u0924\u094d\u0924\u094d\u0935": 2396, "\u0928\u094d\u0924\u0930\u0902": 2397, "\u0928\u094d\u0924\u094d\u0935": 2398, "\u0928\u094d\u0928\u0941\u092e": 2399, "\u0935\u093f\u0937\u094d\u091f": 2400, "\u0935\u094d\u092f\u092e\u094d": 2401, "\u0938\u0902\u0927\u093e\u0928": 2402, "\u0938\u094d\u091f\u094d\u0930": 2403, "\u0938\u094d\u0924\u0924\u094d": 2404, "\u0938\u094d\u092f\u093e\u0903": 2405, "\u0939\u0947\u0902\u0917\u0947": 2406, "\u093f\u0915\u093e\u092f\u093e": 2407, "\u093f\u0915\u093f\u0924\u094d": 2408, "\u093f\u0924\u093e\u0928\u093f": 2409, "\u0943\u0924\u094d\u0924\u093f": 2410, "\u094d\u092f\u0942\u091f\u094d": 2411, "\u2581,\"\"\"": 2412, "\u2581char": 2413, "\u2581\u0905\u092a\u0930\u0902": 2414, "\u2581\u0905\u0935\u0938\u0930": 2415, "\u2581\u0905\u0938\u094d\u0924": 2416, "\u2581\u0906\u0915\u093e\u0930": 2417, "\u2581\u0906\u0927\u093e\u0930": 2418, "\u2581\u0909\u0928\u0915\u093e": 2419, "\u2581\u0915\u0930\u0915\u0947": 2420, "\u2581\u0915\u0938\u094d\u092f": 2421, "\u2581\u0915\u093c\u094c\u092e": 2422, "\u2581\u0915\u0940\u0926\u0943": 2423, "\u2581\u0916\u093c\u092c\u0930": 2424, "\u2581\u091c\u092c\u0915\u093f": 2425, "\u2581\u091c\u0939\u093e\u0902": 2426, "\u2581\u091c\u093e\u092f\u0947": 2427, "\u2581\u0921\u0947\u091f\u093e": 2428, "\u2581\u0924\u093e\u0926\u0943": 2429, "\u2581\u0924\u0947\u0937\u0941": 2430, "\u2581\u0926\u0941\u0937\u094d": 2431, "\u2581\u0926\u0947\u0916\u093e": 2432, "\u2581\u0926\u094d\u0935\u093f": 2433, "\u2581\u0926\u094d\u0935\u0947": 2434, "\u2581\u0928\u0940\u091a\u0947": 2435, "\u2581\u0928\u0942\u0924\u0928": 2436, "\u2581\u0928\u094d\u092f\u093e": 2437, "\u2581\u092a\u0930\u093f\u0915": 2438, "\u2581\u092a\u0930\u093f\u092f": 2439, "\u2581\u092a\u093f\u0924\u093e": 2440, "\u2581\u092a\u0948\u0917\u093c": 2441, "\u2581\u092a\u094d\u0930\u0938": 2442, "\u2581\u092a\u094d\u0930\u0939": 2443, "\u2581\u092a\u094d\u0930\u094c": 2444, "\u2581\u092c\u0927\u093e\u0908": 2445, "\u2581\u092c\u0947\u0936\u0915": 2446, "\u2581\u092d\u0935\u0947\u0924": 2447, "\u2581\u092d\u0942\u092e\u093f": 2448, "\u2581\u092d\u094b\u091c\u0928": 2449, "\u2581\u092e\u093f\u0932\u0947": 2450, "\u2581\u092f\u091a\u094d\u091b": 2451, "\u2581\u092f\u0924\u094d\u0930": 2452, "\u2581\u092f\u0926\u094d\u092f": 2453, "\u2581\u092f\u0940\u0936\u0941": 2454, "\u2581\u0932\u093e\u0928\u0947": 2455, "\u2581\u0935\u093e\u092f\u0941": 2456, "\u2581\u0935\u093f\u0930\u0941": 2457, "\u2581\u0935\u093f\u0935\u0947": 2458, "\u2581\u0936\u092c\u094d\u0926": 2459, "\u2581\u0936\u094d\u0935\u093e": 2460, "\u2581\u0936\u094d\u0935\u0947": 2461, "\u2581\u0938\u0915\u0947\u0902": 2462, "\u2581\u0938\u093f\u0902\u0939": 2463, "\u2581\u0938\u0947\u091f\u094d": 2464, "\u2581\u0938\u094d\u0932\u0948": 2465, "\u2581\u0939\u093f\u0938\u094d": 2466, "\u2581\u0939\u094b\u0915\u0930": 2467, "option": 2468, "\u0927\u093f\u0915\u093e\u0930\u0940": 2469, "\u0928\u093e\u092e\u094d\u0928\u093e": 2470, "\u092a\u094d\u0930\u0926\u0947\u0936": 2471, "\u0935\u094d\u092f\u093e\u0923\u093f": 2472, "\u0938\u094d\u0925\u093f\u0924\u093f": 2473, "\u094b\u093d\u092d\u0935\u0924\u094d": 2474, "\u094d\u092f\u0928\u094d\u0924\u0947": 2475, "\u094d\u092f\u093e\u0930\u094d\u0925": 2476, "\u2581trans": 2477, "\u2581\u0905\u092a\u0936\u094d\u092f": 2478, "\u2581\u0906\u0924\u094d\u092e\u093e": 2479, "\u2581\u0906\u0930\u092e\u094d\u092d": 2480, "\u2581\u0909\u0938\u092e\u0947\u0902": 2481, "\u2581\u0915\u0930\u0947\u0917\u093e": 2482, "\u2581\u091c\u093f\u0938\u0915\u0940": 2483, "\u2581\u091c\u093f\u0938\u0938\u0947": 2484, "\u2581\u0924\u0941\u092e\u0915\u094b": 2485, "\u2581\u0924\u094d\u0935\u093e\u0902": 2486, "\u2581\u0926\u093e\u0924\u0941\u0902": 2487, "\u2581\u0926\u094b\u0939\u0930\u093e": 2488, "\u2581\u0928\u093f\u0935\u0947\u0936": 2489, "\u2581\u0928\u0943\u0924\u094d\u092f": 2490, "\u2581\u092a\u0930\u094d\u092f\u093e": 2491, "\u2581\u092a\u094d\u0930\u092d\u094b": 2492, "\u2581\u092a\u094d\u0930\u0947\u0930": 2493, "\u2581\u092c\u0928\u093e\u0928\u0947": 2494, "\u2581\u092c\u093e\u091c\u093e\u0930": 2495, "\u2581\u092d\u0915\u094d\u0924\u093f": 2496, "\u2581\u092e\u093e\u0928\u0924\u0947": 2497, "\u2581\u092f\u0941\u0915\u094d\u0924": 2498, "\u2581\u0932\u0915\u094d\u0937\u0923": 2499, "\u2581\u0935\u093e\u0930\u094d\u0924": 2500, "\u2581\u0935\u093f\u0924\u094d\u0924": 2501, "\u2581\u0935\u093f\u092a\u0930\u0940": 2502, "\u2581\u0935\u093f\u0938\u094d\u0924": 2503, "\u2581\u0935\u0943\u0915\u094d\u0937": 2504, "\u2581\u0936\u0940\u0930\u094d\u0937": 2505, "\u2581\u0938\u0902\u091a\u093e\u0930": 2506, "\u2581\u0938\u0902\u0938\u093e\u0930": 2507, "\u2581\u0938\u0939\u092f\u094b\u0917": 2508, "\u2581\u0939\u094b\u0902\u0917\u0947": 2509, "\u092a\u0936\u094d\u091a\u093e\u0924\u094d": 2510, "\u0938\u094d\u0924\u093e\u0935\u0947\u091c": 2511, "\u0938\u094d\u092a\u094b\u0915\u0928\u094d": 2512, "\u093e\u0938\u094d\u092f\u093e\u092e\u0903": 2513, "\u2581\u0905\u0927\u094d\u092f\u092f\u0928": 2514, "\u2581\u0905\u0927\u094d\u092f\u093e\u092a": 2515, "\u2581\u0905\u0928\u0941\u0938\u093e\u0930": 2516, "\u2581\u0905\u0935\u0938\u094d\u0925\u093e": 2517, "\u2581\u0906\u0927\u093e\u0930\u093f\u0924": 2518, "\u2581\u0906\u0930\u094d\u0925\u093f\u0915": 2519, "\u2581\u0909\u092a\u0915\u094d\u0930\u092e": 2520, "\u2581\u0909\u092a\u0927\u093e\u0930\u093e": 2521, "\u2581\u0915\u093f\u091e\u094d\u091a\u0928": 2522, "\u2581\u0915\u094b\u0936\u093f\u0915\u093e": 2523, "\u2581\u091a\u093f\u0928\u094b\u0924\u0941": 2524, "\u2581\u0926\u0941\u0928\u093f\u092f\u093e": 2525, "\u2581\u092a\u0919\u094d\u0915\u094d\u0924": 2526, "\u2581\u092a\u0935\u093f\u0924\u094d\u0930": 2527, "\u2581\u092a\u094d\u0930\u092f\u0924\u094d": 2528, "\u2581\u092a\u094d\u0930\u092f\u093e\u0938": 2529, "\u2581\u092a\u094d\u0930\u093e\u0923\u093e": 2530, "\u2581\u092d\u0942\u0924\u094d\u0935\u093e": 2531, "\u2581\u092e\u0942\u0932\u094d\u092f\u0902": 2532, "\u2581\u0932\u093f\u0919\u094d\u0915\u094d": 2533, "\u2581\u0935\u093f\u0915\u0932\u094d\u092a": 2534, "\u2581\u0935\u093f\u0926\u0947\u0936\u0940": 2535, "\u2581\u0936\u0915\u094d\u092f\u0924\u0947": 2536, "\u2581\u0936\u093f\u0915\u094d\u0937\u093e": 2537, "\u2581\u0938\u0902\u092a\u0930\u094d\u0915": 2538, "\u2581\u0938\u092e\u0930\u094d\u0925\u0928": 2539, "\u2581\u0938\u092e\u093e\u092a\u094d\u0924": 2540, "\u2581\u0938\u092e\u094d\u092e\u093e\u0928": 2541, "\u2581\u0938\u094d\u091f\u094d\u0930\u093f": 2542, "optional": 2543, "\u092f\u0941\u0915\u094d\u0924\u093e\u0928\u093f": 2544, "\u2581\u0905\u0902\u0924\u0930\u094d\u0917\u0924": 2545, "\u2581\u0909\u0924\u094d\u092a\u093e\u0926\u0928": 2546, "\u2581\u0914\u091f\u094d\u092a\u0941\u091f\u094d": 2547, "\u2581\u0915\u0947\u0928\u094d\u0926\u094d\u0930": 2548, "\u2581\u091c\u0939\u0928\u094d\u0928\u0941\u092e": 2549, "\u2581\u0924\u093f\u0937\u094d\u0920\u0924\u093f": 2550, "\u2581\u0926\u093e\u092f\u093f\u0924\u094d\u0935": 2551, "\u2581\u0928\u093f\u0937\u094d\u0915\u093e\u0938": 2552, "\u2581\u0928\u0947\u091f\u0935\u0930\u094d\u0915": 2553, "\u2581\u092b\u093c\u094b\u0932\u094d\u0921\u0930": 2554, "\u2581\u092e\u0939\u0924\u094d\u0924\u094d\u0935": 2555, "\u2581\u092f\u0925\u093e\u0930\u094d\u0925\u0902": 2556, "\u2581\u0930\u093e\u091c\u094d\u092f\u094b\u0902": 2557, "\u2581\u0935\u093f\u092d\u093f\u0928\u094d\u0928": 2558, "\u2581\u0935\u093f\u0936\u093f\u0937\u094d\u091f": 2559, "\u2581\u0935\u093f\u0936\u094d\u0930\u093e\u092e": 2560, "\u2581\u0938\u0930\u094d\u0935\u094d\u0935\u093e": 2561, "\u2581\u0938\u093e\u092e\u0917\u094d\u0930\u0940": 2562, "\u2581\u0938\u093e\u092e\u093e\u091c\u093f\u0915": 2563, "\u2581\u0938\u094d\u0925\u093e\u092a\u093f\u0924": 2564, "\u0928\u093f\u0930\u094d\u0926\u093f\u0937\u094d\u091f": 2565, "\u2581\u0905\u0928\u0941\u0938\u0902\u0927\u093e\u0928": 2566, "\u2581\u0906\u0935\u0936\u094d\u092f\u0915\u0924\u093e": 2567, "\u2581\u0915\u0930\u094d\u0924\u094d\u0924\u0941\u0902": 2568, "\u2581\u0924\u0926\u0928\u0928\u094d\u0924\u0930\u0902": 2569, "\u2581\u0924\u0941\u092e\u094d\u0939\u093e\u0930\u0940": 2570, "\u2581\u0926\u0938\u094d\u0924\u093e\u0935\u0947\u091c": 2571, "\u2581\u092a\u0930\u093f\u092f\u094b\u091c\u0928\u093e": 2572, "\u2581\u092a\u094d\u0930\u093e\u092a\u094d\u0928\u094b": 2573, "\u0938\u094d\u091f\u094d\u0930\u0915\u094d\u091f\u0930\u094d": 2574, "\u2581\u090f\u0932\u093f\u092e\u0947\u0923\u094d\u091f\u094d": 2575, "\u2581\u0915\u0930\u0928\u0947\u0935\u093e\u0932\u094b\u0902": 2576, "\u2581\u091f\u0919\u094d\u0915\u092f\u0928\u094d\u0924\u0941": 2577, "\u2581\u0928\u093f\u0930\u094d\u0926\u093f\u0937\u094d\u091f": 2578, "\u2581\u0928\u093f\u0930\u094d\u0927\u093e\u0930\u093f\u0924": 2579, "\u2581\u092a\u094d\u0930\u0924\u094d\u092f\u0915\u094d\u0937": 2580, "\u2581\u092a\u094d\u0930\u093e\u092a\u094d\u0938\u094d\u092f": 2581, "\u2581\u0930\u093e\u0937\u094d\u091f\u094d\u0930\u0940\u092f": 2582, "\u2581\u0935\u093f\u0926\u094d\u092f\u093e\u0930\u094d\u0925": 2583, "\u2581\u0935\u093f\u0936\u094d\u0935\u093e\u0938\u0947\u0928": 2584, "\u2581\u091c\u094d\u091e\u093e\u0938\u094d\u092f\u093e\u092e\u0903": 2585, "\u2581\u092a\u094d\u0930\u0926\u0930\u094d\u0936\u092f\u0924\u093f": 2586, "\u2581translation": 2587, "\u2581\u090f\u0915\u094d\u0938\u093f\u0915\u094d\u092f\u0942\u091f\u094d": 2588, "()": 2589, "CT": 2590, "PU": 2591, "am": 2592, "dm": 2593, "hi": 2594, "ia": 2595, "iz": 2596, "je": 2597, "ks": 2598, "nc": 2599, "ru": 2600, "ve": 2601, "\u00a4\u0095": 2602, "\u00a4\u0097": 2603, "\u0901\u0938": 2604, "\u0902\u0915": 2605, "\u0902\u091f": 2606, "\u0907\u091f": 2607, "\u0910\u0902": 2608, "\u0915\u0928": 2609, "\u0915\u0942": 2610, "\u0915\u0948": 2611, "\u091a\u0932": 2612, "\u091c\u0902": 2613, "\u091c\u0948": 2614, "\u091f\u0948": 2615, "\u0926\u0936": 2616, "\u0926\u094c": 2617, "\u092a\u0924": 2618, "\u092b\u0930": 2619, "\u092b\u094b": 2620, "\u092c\u0932": 2621, "\u092e\u092f": 2622, "\u0930\u092e": 2623, "\u0930\u0932": 2624, "\u0930\u0948": 2625, "\u0932\u0902": 2626, "\u0932\u092e": 2627, "\u0932\u0935": 2628, "\u0932\u0941": 2629, "\u0936\u0903": 2630, "\u0936\u094d": 2631, "\u0940\u0903": 2632, "\u0940\u0926": 2633, "\u0940\u0932": 2634, "\u0947\u092e": 2635, "\u0947\u093d": 2636, "\u094b\u092a": 2637, "\u2581_": 2638, "\u2581\u0308": 2639, "art": 2640, "cli": 2641, "con": 2642, "cri": 2643, "end": 2644, "htm": 2645, "ibr": 2646, "ide": 2647, "ire": 2648, "ith": 2649, "ity": 2650, "nic": 2651, "ode": 2652, "oha": 2653, "ome": 2654, "orm": 2655, "ows": 2656, "rom": 2657, "ult": 2658, "\u0901\u091a\u093e": 2659, "\u0902\u0938\u093e": 2660, "\u0905\u0939\u0902": 2661, "\u0915\u0928\u0947": 2662, "\u0915\u093c\u0947": 2663, "\u0915\u0941\u0932": 2664, "\u0916\u094d\u0936": 2665, "\u0917\u0940\u0924": 2666, "\u0917\u0941\u0923": 2667, "\u091c\u093c\u093e": 2668, "\u091c\u093f\u0928": 2669, "\u091c\u0942\u0926": 2670, "\u091c\u0947\u0902": 2671, "\u091c\u094d\u092e": 2672, "\u091f\u0915\u0930": 2673, "\u091f\u0928\u094d": 2674, "\u091f\u092e\u094d": 2675, "\u0921\u093c\u0915": 2676, "\u0924\u090f\u0935": 2677, "\u0924\u0925\u093e": 2678, "\u0924\u0926\u094d": 2679, "\u0924\u0928\u093e": 2680, "\u0924\u093f\u092e": 2681, "\u0924\u094d\u0938": 2682, "\u0925\u092e\u0902": 2683, "\u0928\u0932\u094d": 2684, "\u092a\u0930\u0947": 2685, "\u092b\u093f\u0937": 2686, "\u092c\u0942\u0926": 2687, "\u092d\u0935\u093f": 2688, "\u092d\u0942\u0924": 2689, "\u092e\u0939\u0902": 2690, "\u092e\u0947\u0937": 2691, "\u092f\u093e\u0901": 2692, "\u092f\u0947\u0928": 2693, "\u0930\u0924\u0940": 2694, "\u0930\u093e\u0903": 2695, "\u0930\u0940\u092f": 2696, "\u0930\u0941\u092a": 2697, "\u0932\u094b\u092e": 2698, "\u0936\u0930\u0940": 2699, "\u0936\u093f\u0936": 2700, "\u0936\u0940\u0932": 2701, "\u0937\u094d\u092a": 2702, "\u0938\u0902\u0926": 2703, "\u0938\u0930\u0947": 2704, "\u0939\u0930\u0947": 2705, "\u093e\u0923\u093f": 2706, "\u093e\u0927\u0903": 2707, "\u093f\u0915\u0947": 2708, "\u093f\u092a\u094d": 2709, "\u0940\u092f\u093e": 2710, "\u0940\u0935\u0940": 2711, "\u0941\u0930\u0942": 2712, "\u0948\u0902\u0915": 2713, "\u0948\u091f\u094d": 2714, "\u094d\u0930\u094b": 2715, "\u094d\u0932\u094b": 2716, "\u258110": 2717, "\u258125": 2718, "\u2581It": 2719, "\u2581Op": 2720, "\u2581me": 2721, "\u2581on": 2722, "\u2581su": 2723, "\u2581th": 2724, "\u2581\u0905\u0915": 2725, "\u2581\u0905\u0926": 2726, "\u2581\u0905\u092e": 2727, "\u2581\u0905\u0930": 2728, "\u2581\u0906\u0901": 2729, "\u2581\u0906\u092f": 2730, "\u2581\u0915\u0902": 2731, "\u2581\u0915\u0903": 2732, "\u2581\u0915\u0932": 2733, "\u2581\u0917\u0935": 2734, "\u2581\u0917\u0940": 2735, "\u2581\u091c\u0947": 2736, "\u2581\u091f\u0942": 2737, "\u2581\u0921\u0948": 2738, "\u2581\u0924\u0932": 2739, "\u2581\u0924\u094c": 2740, "\u2581\u0927\u092e": 2741, "\u2581\u092a\u0915": 2742, "\u2581\u092a\u0926": 2743, "\u2581\u092d\u093f": 2744, "\u2581\u092e\u0927": 2745, "\u2581\u092e\u0930": 2746, "\u2581\u092e\u0932": 2747, "\u2581\u092e\u0940": 2748, "\u2581\u092e\u0943": 2749, "\u2581\u092f\u0902": 2750, "\u2581\u0936\u0932": 2751, "\u2581\u0936\u0942": 2752, "\u2581\u0938\u0903": 2753, "\u2581\u0938\u0924": 2754, "\u2581\u0938\u0943": 2755, ".201": 2756, "ales": 2757, "atab": 2758, "ateg": 2759, "cket": 2760, "clip": 2761, "crip": 2762, "ctor": 2763, "heck": 2764, "lass": 2765, "otes": 2766, "ount": 2767, "pres": 2768, "stem": 2769, "thod": 2770, "\u0905\u0928\u094d\u0924": 2771, "\u0907\u0924\u094d\u092f": 2772, "\u0915\u094d\u092f\u0902": 2773, "\u0915\u094d\u0930\u0947": 2774, "\u0915\u094d\u0930\u094b": 2775, "\u0915\u094d\u0938\u0947": 2776, "\u091a\u093f\u0924\u094d": 2777, "\u091c\u094d\u091c\u0928": 2778, "\u091e\u094d\u091a\u0928": 2779, "\u0924\u093e\u0913\u0902": 2780, "\u0924\u093e\u092e\u094d": 2781, "\u0924\u094d\u0924\u0940": 2782, "\u0924\u094d\u0925\u0902": 2783, "\u0924\u094d\u0935\u0902": 2784, "\u0926\u0930\u094d\u092d": 2785, "\u0926\u0947\u0936\u0947": 2786, "\u0926\u094d\u0926\u0940": 2787, "\u0928\u093e\u0928\u093f": 2788, "\u0928\u093e\u092f\u093e": 2789, "\u0928\u094d\u0926\u0940": 2790, "\u0928\u094d\u092f\u093e": 2791, "\u092a\u094d\u0932\u0947": 2792, "\u092c\u0926\u094d\u0927": 2793, "\u092d\u093e\u0917\u0947": 2794, "\u092d\u094d\u092f\u094b": 2795, "\u092f\u092e\u093e\u0928": 2796, "\u092f\u093e\u092e\u0924": 2797, "\u0930\u093e\u0924\u094d": 2798, "\u0930\u093e\u092c\u0930": 2799, "\u0930\u094d\u0921\u094d": 2800, "\u0930\u094d\u0928\u093f": 2801, "\u0932\u093f\u0902\u0917": 2802, "\u0932\u093f\u092f\u093e": 2803, "\u0932\u094b\u0921\u094d": 2804, "\u0935\u0930\u094b\u0902": 2805, "\u0935\u0938\u094d\u0924": 2806, "\u0935\u093f\u0927\u093f": 2807, "\u0936\u093f\u0902\u0917": 2808, "\u0936\u094d\u091a\u093f": 2809, "\u0938\u0902\u0938\u094d": 2810, "\u0938\u0930\u094d\u0935": 2811, "\u0938\u094d\u0935\u093e": 2812, "\u093e\u0928\u094b\u0902": 2813, "\u093e\u092a\u094d\u0924": 2814, "\u093e\u092e\u0939\u0947": 2815, "\u093f\u0915\u093e\u0902": 2816, "\u093f\u0924\u093e\u092c": 2817, "\u093f\u092f\u093e\u0902": 2818, "\u093f\u092f\u094b\u0917": 2819, "\u093f\u0930\u0942\u0936": 2820, "\u0940\u092f\u0924\u0947": 2821, "\u0941\u0915\u094d\u0924": 2822, "\u0942\u0928\u093e\u0902": 2823, "\u0947\u0936\u0928\u094d": 2824, "\u0948\u0930\u094d\u092f": 2825, "\u094b\u091a\u094d\u091a": 2826, "\u094b\u0924\u094d\u0924": 2827, "\u094d\u092f\u0941\u0903": 2828, "\u094d\u0930\u093e\u0939": 2829, "\u094d\u0930\u093f\u092f": 2830, "\u2581(1)": 2831, "\u2581201": 2832, "\u2581500": 2833, "\u2581Com": 2834, "\u2581Typ": 2835, "\u2581bra": 2836, "\u2581int": 2837, "\u2581not": 2838, "\u2581pri": 2839, "\u2581res": 2840, "\u2581\u0905\u0917\u094d": 2841, "\u2581\u0905\u0924\u094b": 2842, "\u2581\u0905\u0927\u094b": 2843, "\u2581\u0905\u0928\u093e": 2844, "\u2581\u0905\u092d\u0940": 2845, "\u2581\u0907\u0938\u094d": 2846, "\u2581\u0908\u0938\u093e": 2847, "\u2581\u0909\u0920\u093e": 2848, "\u2581\u0915\u0924\u093f": 2849, "\u2581\u0915\u0930\u094d": 2850, "\u2581\u0915\u0932\u093e": 2851, "\u2581\u0915\u093c\u093e": 2852, "\u2581\u0915\u093e\u0928": 2853, "\u2581\u0915\u093e\u0932": 2854, "\u2581\u0915\u093f\u0938": 2855, "\u2581\u0917\u0935\u093e": 2856, "\u2581\u0917\u093e\u092f": 2857, "\u2581\u091a\u093f\u0902": 2858, "\u2581\u091c\u0932\u094d": 2859, "\u2581\u091f\u0930\u094d": 2860, "\u2581\u0920\u0939\u0930": 2861, "\u2581\u0921\u093e\u092f": 2862, "\u2581\u0921\u093e\u0932": 2863, "\u2581\u0926\u0936\u093e": 2864, "\u2581\u0926\u093f\u090f": 2865, "\u2581\u0926\u093f\u0932": 2866, "\u2581\u0928\u092f\u093e": 2867, "\u2581\u0928\u093f\u0924": 2868, "\u2581\u092a\u0902\u091a": 2869, "\u2581\u092a\u0922\u093c": 2870, "\u2581\u092a\u0924\u093e": 2871, "\u2581\u092a\u093e\u0930": 2872, "\u2581\u092b\u0932\u0902": 2873, "\u2581\u092c\u0902\u0926": 2874, "\u2581\u092c\u093e\u092a": 2875, "\u2581\u092c\u093e\u092c": 2876, "\u2581\u092c\u093e\u092f": 2877, "\u2581\u092d\u0935\u0928": 2878, "\u2581\u092d\u094b\u091c": 2879, "\u2581\u092d\u094d\u0930": 2880, "\u2581\u092e\u0926\u0940": 2881, "\u2581\u092e\u0928\u094b": 2882, "\u2581\u092e\u093e\u0939": 2883, "\u2581\u092e\u0941\u0939": 2884, "\u2581\u092e\u094c\u0924": 2885, "\u2581\u092f\u0915\u093c": 2886, "\u2581\u092f\u0924\u0903": 2887, "\u2581\u0930\u0916\u0947": 2888, "\u2581\u0930\u0928\u094d": 2889, "\u2581\u0930\u093e\u0939": 2890, "\u2581\u0930\u0941\u092a": 2891, "\u2581\u0932\u093e\u0932": 2892, "\u2581\u0935\u093f\u091c": 2893, "\u2581\u0935\u093f\u0935": 2894, "\u2581\u0938\u0915\u093e": 2895, "\u2581\u0938\u092b\u0932": 2896, "\u2581\u0938\u092e\u0940": 2897, "\u2581\u0938\u093e\u0907": 2898, "\u2581\u0938\u093e\u092b": 2899, "\u2581\u0938\u0941\u0928": 2900, "\u2581\u0938\u0942\u0930": 2901, "\u2581\u0938\u094b\u091a": 2902, "\u2581\u0938\u094d\u0930": 2903, "\u2581\u0939\u0925\u0947": 2904, "\u2581\u0939\u093f\u0924": 2905, "lease": 2906, "oodle": 2907, "ource": 2908, "yphen": 2909, "\u0915\u0930\u0923\u092e\u094d": 2910, "\u0915\u093f\u092e\u092a\u093f": 2911, "\u0915\u094d\u0937\u094d\u0923": 2912, "\u0915\u094d\u0937\u094d\u092e": 2913, "\u0917\u0930\u0938\u094d\u092f": 2914, "\u0917\u094d\u0930\u0939\u093e": 2915, "\u091c\u093f\u092f\u094b\u0902": 2916, "\u091c\u094d\u092e\u0939\u0947": 2917, "\u0924\u094d\u0915\u093e\u0930": 2918, "\u0926\u0930\u094d\u0936\u0940": 2919, "\u0926\u093e\u0930\u094d\u0925": 2920, "\u0928\u0943\u0924\u094d\u092f": 2921, "\u092d\u094d\u092f\u093e\u0902": 2922, "\u092e\u093e\u0928\u0939\u0902": 2923, "\u092f\u094b\u091c\u0928\u0902": 2924, "\u0930\u094d\u092a\u093f\u0924": 2925, "\u0930\u094d\u0936\u094d\u0935": 2926, "\u0932\u093f\u0916\u093f\u0924": 2927, "\u0932\u0947\u0915\u093f\u0928": 2928, "\u0935\u093f\u0926\u094d\u092f": 2929, "\u0935\u093f\u0936\u094d\u092f": 2930, "\u0936\u094d\u092f\u0924\u0947": 2931, "\u0938\u0902\u0916\u094d\u092f": 2932, "\u0938\u0928\u0938\u094d\u092f": 2933, "\u0938\u093f\u0926\u094d\u0927": 2934, "\u0938\u094d\u0924\u0941\u0924": 2935, "\u0938\u094d\u0924\u094d\u0930": 2936, "\u093e\u092e\u0930\u094d\u0936": 2937, "\u0943\u0924\u094d\u092f\u0941": 2938, "\u094d\u0930\u093e\u0923\u0902": 2939, "\u25812000": 2940, "\u2581Libr": 2941, "\u2581\u0905\u092e\u0947\u0930": 2942, "\u2581\u0905\u0935\u0927\u093f": 2943, "\u2581\u0906\u092c\u093e\u0926": 2944, "\u2581\u0906\u0936\u094d\u091a": 2945, "\u2581\u0907\u091a\u094d\u091b": 2946, "\u2581\u0907\u0938\u0915\u093e": 2947, "\u2581\u0907\u0938\u0915\u0940": 2948, "\u2581\u0909\u0924\u094d\u0938": 2949, "\u2581\u0909\u0926\u094d\u0927": 2950, "\u2581\u0909\u0938\u0915\u094b": 2951, "\u2581\u0909\u0938\u0938\u0947": 2952, "\u2581\u090f\u0924\u093e\u0903": 2953, "\u2581\u0915\u0925\u092e\u094d": 2954, "\u2581\u0915\u094b\u0921\u094d": 2955, "\u2581\u0917\u0923\u094d\u0921": 2956, "\u2581\u0918\u091f\u0928\u093e": 2957, "\u2581\u091a\u0947\u0915\u094d": 2958, "\u2581\u091b\u093f\u092a\u093e": 2959, "\u2581\u091c\u0930\u0942\u0930": 2960, "\u2581\u091c\u093e\u0935\u093e": 2961, "\u2581\u0924\u091a\u094d\u091a": 2962, "\u2581\u0924\u0924\u094d\u0935": 2963, "\u2581\u0924\u0926\u0947\u0935": 2964, "\u2581\u0926\u093f\u0932\u094d": 2965, "\u2581\u0926\u093f\u0936\u093e": 2966, "\u2581\u0926\u0942\u0930\u0940": 2967, "\u2581\u0926\u094d\u0935\u093e": 2968, "\u2581\u0927\u0930\u0924\u0940": 2969, "\u2581\u0927\u0947\u0928\u0935": 2970, "\u2581\u0928\u0915\u094d\u0937": 2971, "\u2581\u0928\u092e\u0938\u094d": 2972, "\u2581\u0928\u093f\u0915\u091f": 2973, "\u2581\u0928\u093f\u091c\u0940": 2974, "\u2581\u0928\u093f\u092f\u0902": 2975, "\u2581\u0928\u094c\u0915\u093e": 2976, "\u2581\u092a\u0902\u091c\u093e": 2977, "\u2581\u092a\u0921\u093c\u0947": 2978, "\u2581\u092a\u0930\u093f\u0937": 2979, "\u2581\u092a\u0930\u0947\u0936": 2980, "\u2581\u092a\u0941\u0930\u0941": 2981, "\u2581\u092a\u0943\u0925\u093f": 2982, "\u2581\u092b\u0948\u0932\u093e": 2983, "\u2581\u092c\u0916\u094d\u0936": 2984, "\u2581\u092c\u091a\u093e\u0935": 2985, "\u2581\u092c\u091f\u0928\u094d": 2986, "\u2581\u092c\u0921\u093c\u0947": 2987, "\u2581\u092c\u0922\u093c\u093e": 2988, "\u2581\u092c\u0926\u0932\u093e": 2989, "\u2581\u092c\u0939\u0935\u0903": 2990, "\u2581\u092c\u093f\u0928\u093e": 2991, "\u2581\u092c\u093f\u0932\u094d": 2992, "\u2581\u092c\u0941\u0930\u093e": 2993, "\u2581\u092c\u0941\u0930\u0940": 2994, "\u2581\u092d\u0915\u094d\u0924": 2995, "\u2581": 2996, "\u094d": 2997, "\u093e": 2998, "\u0924": 2999, "\u0930": 3000, "\u0915": 3001, "\u093f": 3002, "\u0928": 3003, "\u0947": 3004, "\u092f": 3005, "\u0938": 3006, "\u092e": 3007, "\u0902": 3008, "\u0935": 3009, "\u092a": 3010, "\"": 3011, "\u0939": 3012, "\u0940": 3013, "\u094b": 3014, "\u0926": 3015, "\u0941": 3016, "\u0932": 3017, "\u091c": 3018, "\u0917": 3019, "\u0964": 3020, "\u0936": 3021, "\u0905": 3022, "\u091a": 3023, "\u0937": 3024, "\u092c": 3025, "\u092d": 3026, "\u0948": 3027, "\u0925": 3028, "\u0927": 3029, ",": 3030, "\u091f": 3031, "\u0903": 3032, "\u0942": 3033, "\u0923": 3034, "\u0907": 3035, "\u090f": 3036, "\u0909": 3037, "e": 3038, "\u093c": 3039, "\u0921": 3040, "\u0906": 3041, "t": 3042, "\u0916": 3043, "\u0943": 3044, "a": 3045, "\u0914": 3046, "-": 3047, "o": 3048, "n": 3049, "i": 3050, "s": 3051, "r": 3052, ":": 3053, "\u092b": 3054, ".": 3055, "(": 3056, ")": 3057, "l": 3058, "\u091b": 3059, "c": 3060, "\u0908": 3061, "\u091e": 3062, "\u0920": 3063, "p": 3064, "u": 3065, "\u094c": 3066, "d": 3067, "m": 3068, "h": 3069, "1": 3070, "\u0918": 3071, "0": 3072, "\u00e0": 3073, "\u0919": 3074, "\u0901": 3075, "|": 3076, "\u0913": 3077, "2": 3078, "?": 3079, "\u00a4": 3080, "g": 3081, "S": 3082, "'": 3083, "\u0910": 3084, "b": 3085, "\u093d": 3086, "y": 3087, "\u0922": 3088, "f": 3089, "C": 3090, "\u091d": 3091, "k": 3092, "w": 3093, ";": 3094, "M": 3095, "T": 3096, "/": 3097, "E": 3098, "3": 3099, "v": 3100, "9": 3101, "A": 3102, "\u0949": 3103, "5": 3104, "L": 3105, "x": 3106, "4": 3107, "I": 3108, "P": 3109, "\u00a5": 3110, "7": 3111, "B": 3112, "R": 3113, "8": 3114, "D": 3115, "F": 3116, "6": 3117, "\u2018": 3118, "N": 3119, "U": 3120, "!": 3121, "_": 3122, "\u2019": 3123, "\u090a": 3124, "O": 3125, "\u0967": 3126, "X": 3127, "q": 3128, "\u2013": 3129, "H": 3130, "%": 3131, "\u0087": 3132, "\u008d": 3133, "\u00b0": 3134, "\u201d": 3135, "\u201c": 3136, "V": 3137, "G": 3138, "\u090b": 3139, "\u0911": 3140, "K": 3141, "\u0082": 3142, "\u0327": 3143, "\u0966": 3144, "\u096f": 3145, ">": 3146, "J": 3147, "W": 3148, "j": 3149, "z": 3150, "\u00a1": 3151, "\u096e": 3152, "+": 3153, "=": 3154, "\u0080": 3155, "\u0969": 3156, "\u096d": 3157, "@": 3158, "Z": 3159, "[": 3160, "]": 3161, "\u0095": 3162, "\u0097": 3163, "\u0308": 3164, "&": 3165, "Q": 3166, "~": 3167, "\u0086": 3168, "\u00ae": 3169, "\u00bf": 3170, "\u0304": 3171, "\u03bc": 3172, "\u0931": 3173, "\u0944": 3174, "\u0945": 3175, "\u0950": 3176, "\u096a": 3177, "\u096b": 3178, "\u0970": 3179, "\u2044": 3180, "*": 3181, "Y": 3182, "\u0088": 3183, "\u009c": 3184, "\u00ab": 3185, "\u0968": 3186, "\u2014": 3187, "$": 3188, "<": 3189, "\u0081": 3190, "\u0089": 3191, "\u0096": 3192, "\u0098": 3193, "\u00a3": 3194, "\u00ac": 3195, "\u090e": 3196, "\u0946": 3197, "\u0965": 3198, "\u096c": 3199}